<pad>	0
<s>	0
</s>	0
<unk>	0
,	-3.60698
.	-3.8316
▁the	-3.89237
▁के	-4.18017
▁of	-4.27633
▁है	-4.3645
।	-4.49644
▁and	-4.5475
▁और	-4.575
▁में	-4.58773
▁to	-4.70578
▁की	-4.74571
s	-4.79933
)	-4.88888
▁in	-4.94164
▁(	-4.9449
▁से	-4.96391
▁a	-5.05649
▁को	-5.06335
▁का	-5.17581
▁is	-5.23444
-	-5.39392
▁हैं	-5.54169
▁कि	-5.59565
▁पर	-5.62938
▁for	-5.64735
▁लिए	-5.7014
▁एक	-5.72571
▁-	-5.74304
▁that	-5.75038
▁	-5.81637
▁तो	-5.83922
▁नहीं	-5.85766
▁you	-5.8973
▁जो	-5.91184
ों	-5.93067
▁be	-5.94905
▁The	-5.96454
▁भी	-5.97352
▁हो	-6.04113
▁not	-6.08238
▁ने	-6.12167
▁are	-6.13887
▁किया	-6.14397
▁with	-6.14891
▁on	-6.16324
▁कर	-6.17976
▁ही	-6.19107
▁it	-6.19312
▁यह	-6.19602
▁or	-6.20181
▁'	-6.20243
:	-6.22972
;	-6.26298
▁as	-6.2679
▁by	-6.28063
▁इस	-6.28416
ी	-6.2903
▁या	-6.33244
▁वह	-6.33401
ing	-6.33795
▁have	-6.34637
▁was	-6.35459
▁they	-6.36269
▁करने	-6.3693
▁from	-6.37006
▁will	-6.40466
▁न	-6.42365
?	-6.4679
▁them	-6.47036
▁this	-6.49332
▁"	-6.53336
▁अपने	-6.54255
▁था	-6.56173
▁has	-6.56947
ed	-6.58328
▁which	-6.58821
▁I	-6.5945
▁who	-6.61919
▁their	-6.65425
▁तुम	-6.6554
▁his	-6.68275
▁s	-6.68372
▁वे	-6.70159
▁गया	-6.71928
▁He	-6.7197
▁तथा	-6.74684
▁कुछ	-6.7641
▁an	-6.77365
▁he	-6.77704
▁किसी	-6.79824
ा	-6.83442
▁at	-6.87292
▁Allah	-6.878
▁हम	-6.88047
▁साथ	-6.8914
▁कोई	-6.89565
'	-6.90696
▁And	-6.90963
▁all	-6.91499
न	-6.92878
▁उनके	-6.93495
▁रूप	-6.94961
▁थे	-6.95052
d	-6.9623
▁द्वारा	-6.97
▁We	-6.97569
े	-6.98219
▁करते	-7.01212
▁your	-7.01411
▁A	-7.01655
▁लोगों	-7.01979
▁लोग	-7.02319
!	-7.02923
▁जब	-7.0297
▁दिया	-7.03691
▁India	-7.05676
%	-7.06165
ता	-7.0714
क	-7.08295
▁भारत	-7.08764
▁तक	-7.09252
▁but	-7.117
▁ये	-7.14413
▁फिर	-7.14723
▁one	-7.15395
▁जा	-7.15804
▁we	-7.15922
▁जाता	-7.18167
▁been	-7.18947
▁उसके	-7.20517
▁कहा	-7.20887
▁क्या	-7.2098
▁करें	-7.21321
▁अल्लाह	-7.21462
▁do	-7.22095
▁were	-7.22601
t	-7.24001
▁any	-7.24007
▁करना	-7.24016
ly	-7.24283
▁उस	-7.24557
▁had	-7.25079
/	-7.25114
▁ख़ुदा	-7.25183
▁अपनी	-7.25911
▁can	-7.2703
▁those	-7.27995
▁him	-7.2872
▁रहे	-7.29164
▁said	-7.29667
▁people	-7.29839
▁In	-7.31083
▁हुए	-7.3184
▁when	-7.31956
▁It	-7.32331
▁shall	-7.33749
▁उन्हें	-7.33809
▁मैं	-7.34013
▁करता	-7.35384
▁उन	-7.35792
▁होता	-7.36948
▁थी	-7.40141
▁other	-7.40351
▁so	-7.40445
▁उसे	-7.40753
ं	-7.40773
▁also	-7.40894
▁आप	-7.40971
▁God	-7.4209
▁सकता	-7.42229
▁रहा	-7.42466
▁what	-7.42472
▁if	-7.42503
ना	-7.43252
▁its	-7.43421
र	-7.43559
▁दो	-7.45027
▁“	-7.45658
à	-7.45875
▁बहुत	-7.45943
▁there	-7.46105
▁our	-7.46885
▁no	-7.47304
▁समय	-7.47833
er	-7.48467
▁Lord	-7.4929
ने	-7.4935
a	-7.4966
▁may	-7.49676
▁_	-7.53033
▁This	-7.5538
ो	-7.57679
▁बात	-7.57779
▁तरह	-7.57876
▁वाले	-7.57934
▁उन्होंने	-7.58123
▁अधिक	-7.58238
त	-7.58484
▁1	-7.58932
▁हुआ	-7.58953
▁would	-7.58985
▁बाद	-7.59887
▁पहले	-7.60289
ल	-7.60458
e	-7.60568
▁only	-7.6236
▁such	-7.62681
▁out	-7.63156
▁हमने	-7.63486
स	-7.63621
▁पास	-7.63943
▁time	-7.64496
▁आ	-7.64661
▁होगा	-7.65411
▁तुम्हारे	-7.65624
▁उनकी	-7.66349
i	-7.66573
▁/	-7.67238
म	-7.67271
▁यदि	-7.67358
▁up	-7.67508
ः	-7.67556
▁गए	-7.67755
▁then	-7.67998
▁दिन	-7.68172
’	-7.68834
▁made	-7.6967
▁ओर	-7.69942
▁दी	-7.70561
▁गई	-7.70742
▁सभी	-7.70781
in	-7.70972
▁कार्य	-7.72427
▁हमारे	-7.72505
▁राष्ट्रपति	-7.7256
▁under	-7.72867
▁”	-7.72946
▁ऐसे	-7.73186
▁होने	-7.73433
y	-7.73506
▁more	-7.74331
▁अन्य	-7.74577
▁व	-7.74627
▁काम	-7.75232
▁about	-7.75543
कर	-7.76013
▁should	-7.76454
▁into	-7.76461
▁प्रकार	-7.76513
▁सकते	-7.77131
▁चाहिए	-7.7715
▁[	-7.78536
▁like	-7.79203
▁प्राप्त	-7.79263
▁इसके	-7.79441
▁इन	-7.80003
al	-7.82109
▁उसकी	-7.82248
m	-7.82656
▁They	-7.82676
▁me	-7.82799
▁But	-7.83082
▁किए	-7.83388
▁&	-7.83975
▁over	-7.84225
▁होती	-7.8432
▁than	-7.85186
▁क्षेत्र	-7.86131
▁S	-7.8681
▁my	-7.86993
▁two	-7.8704
▁जाने	-7.88472
▁So	-7.89438
ित	-7.89835
▁ऐसा	-7.902
▁एवं	-7.90611
▁these	-7.90931
▁some	-7.91002
▁करो	-7.91509
▁दे	-7.91635
▁अब	-7.91885
▁अगर	-7.92297
▁सब	-7.92576
▁us	-7.92691
▁भारतीय	-7.92958
th	-7.93197
▁ले	-7.93763
▁देश	-7.94007
▁नाम	-7.94187
▁before	-7.9419
]	-7.94445
▁विकास	-7.94684
"	-7.94742
▁कम	-7.94829
▁(_	-7.9496
▁सरकार	-7.95536
ियों	-7.95539
▁रसूल	-7.95657
▁मुझे	-7.95843
▁after	-7.95942
▁new	-7.9675
n	-7.9717
▁कारण	-7.973
ें	-7.98265
▁हुई	-7.98462
r	-7.98809
▁His	-7.98876
▁2	-7.99114
▁अ	-8.00471
▁life	-8.01291
▁राज्य	-8.02134
▁उसने	-8.02679
▁say	-8.03004
▁day	-8.03358
▁लेकिन	-8.0375
▁लिया	-8.04285
▁तुम्हें	-8.04622
▁व्यक्ति	-8.05167
▁जाती	-8.05646
▁हर	-8.06032
▁Indian	-8.06155
▁दोनों	-8.0625
▁जिस	-8.06341
▁प्रति	-8.06451
▁वर्ष	-8.0833
es	-8.08457
▁ऐसी	-8.08602
▁her	-8.08682
▁being	-8.08704
▁होते	-8.09784
▁जीवन	-8.1005
S	-8.10191
▁‘	-8.11568
ते	-8.11753
▁प्रदान	-8.11966
re	-8.12484
▁बारे	-8.12582
▁रही	-8.12899
▁बीच	-8.13064
ए	-8.13196
▁make	-8.1338
▁good	-8.13441
व	-8.14813
▁world	-8.14985
▁If	-8.15449
।"	-8.16095
▁through	-8.16371
▁जैसे	-8.17634
▁between	-8.17925
▁वाला	-8.17952
...	-8.17968
▁You	-8.18185
▁उसका	-8.18241
प	-8.18248
द	-8.18286
▁President	-8.18572
▁country	-8.19313
▁used	-8.20193
c	-8.20863
▁down	-8.21561
▁come	-8.21645
▁ईमान	-8.21796
ई	-8.22015
▁first	-8.22058
▁C	-8.22061
ऐ	-8.2211
ओं	-8.22436
ट	-8.23053
▁well	-8.23222
▁could	-8.23538
▁रब	-8.23942
▁जाएगा	-8.24612
▁उनका	-8.24772
▁way	-8.24804
▁know	-8.25124
▁Government	-8.25372
▁केवल	-8.25796
ग	-8.25814
▁मेरे	-8.259
ज	-8.26126
▁years	-8.26137
ब	-8.26603
▁many	-8.26691
▁हमें	-8.27214
▁work	-8.27256
▁upon	-8.27586
▁जिसमें	-8.27872
▁अपना	-8.28013
▁year	-8.28025
▁3	-8.28851
▁हूँ	-8.29073
▁very	-8.2915
के	-8.29382
▁भाग	-8.30252
▁There	-8.30436
ख	-8.30516
▁Act	-8.30827
▁earth	-8.31026
▁most	-8.31197
▁वही	-8.3173
▁ताकि	-8.31851
▁उपयोग	-8.31852
▁All	-8.3186
b	-8.31953
▁did	-8.32166
▁सबसे	-8.3328
▁प्रयोग	-8.33427
▁देने	-8.33544
▁where	-8.34237
▁against	-8.34433
▁वाली	-8.34754
▁इसे	-8.34912
्	-8.35022
ि	-8.35043
▁उसी	-8.35073
▁बार	-8.35108
O	-8.35407
▁श्री	-8.3594
▁see	-8.36228
▁P	-8.36277
st	-8.36292
▁हमारी	-8.36372
▁जाना	-8.37009
▁बड़ा	-8.37285
▁अधिनियम	-8.37445
▁take	-8.37466
▁पूर्व	-8.37702
▁O	-8.37711
▁B	-8.37821
ती	-8.37926
▁पैदा	-8.38105
▁देता	-8.38125
▁ऐ	-8.38308
▁जाते	-8.38429
▁बना	-8.38966
िक	-8.3897
▁इसमें	-8.39148
▁जाए	-8.39643
्स	-8.40259
▁आज	-8.40392
▁even	-8.4047
▁believe	-8.40829
▁राष्ट्रीय	-8.4106
▁धारा	-8.41117
or	-8.41379
य	-8.4197
▁बस	-8.42033
▁तब	-8.42076
▁जिसे	-8.42166
▁To	-8.42514
I	-8.42518
▁among	-8.42545
ह	-8.42954
▁man	-8.43005
▁उससे	-8.43045
▁मे	-8.43048
▁given	-8.4346
▁because	-8.4409
▁अथवा	-8.44515
▁Him	-8.44554
▁संदेश	-8.44598
able	-8.44656
▁परवरदिगार	-8.44844
ीय	-8.44952
▁क्योंकि	-8.44981
▁right	-8.4548
▁must	-8.45732
▁उनसे	-8.46301
▁स्थान	-8.46332
▁D	-8.46642
▁State	-8.4676
▁सी	-8.46798
▁un	-8.46961
▁शिक्षा	-8.46966
▁give	-8.47031
▁part	-8.47178
▁कह	-8.48011
या	-8.48624
▁सकती	-8.49366
▁place	-8.49382
▁चीज़	-8.49435
▁every	-8.49498
▁करती	-8.49693
▁ye	-8.50099
▁does	-8.50597
▁स्थिति	-8.50618
▁own	-8.50773
▁per	-8.50881
▁sent	-8.51104
▁जिन	-8.51343
¤	-8.51541
▁दूसरे	-8.51999
▁इसलिए	-8.52202
▁L	-8.52812
▁water	-8.53113
▁As	-8.53139
▁बड़ी	-8.53538
▁सूचना	-8.53556
श	-8.53776
का	-8.539
▁When	-8.53962
▁Day	-8.54144
सी	-8.54558
▁am	-8.54571
▁सहायता	-8.54718
▁great	-8.54766
▁होगी	-8.55011
▁use	-8.55209
an	-8.55643
▁हूं	-8.55833
▁whom	-8.56087
l	-8.56227
▁away	-8.56243
▁विभिन्न	-8.56267
▁re	-8.57006
▁M	-8.57015
▁कभी	-8.57017
A	-8.57074
▁name	-8.57134
▁विशेष	-8.57147
▁होना	-8.57326
▁उनमें	-8.57383
▁शामिल	-8.57574
ation	-8.57625
▁how	-8.57665
▁स	-8.57776
▁set	-8.57802
ड	-8.57874
▁बल्कि	-8.58041
▁मेरी	-8.58227
▁इससे	-8.58241
▁कई	-8.58594
”	-8.58741
▁योजना	-8.58848
▁now	-8.59056
▁back	-8.59111
▁कहते	-8.59298
▁e	-8.59313
▁विचार	-8.59319
▁दौरान	-8.5978
▁आय	-8.59913
▁get	-8.60028
▁करके	-8.60041
▁लिये	-8.60274
▁:	-8.60325
▁during	-8.60442
▁यहाँ	-8.60483
▁person	-8.60499
▁आगे	-8.60511
▁अधीन	-8.60792
▁अनुसार	-8.60926
▁For	-8.61149
."	-8.6125
▁No	-8.61387
▁sub	-8.61538
री	-8.61545
▁number	-8.61676
▁जी	-8.61696
▁while	-8.61733
▁पता	-8.62221
की	-8.62223
▁जहां	-8.62255
▁ए	-8.62428
▁same	-8.62581
▁Our	-8.62697
ला	-8.62771
▁5	-8.63225
▁उनको	-8.63308
▁संबंध	-8.63333
एं	-8.63548
▁सेवा	-8.63671
C	-8.63723
▁d	-8.6389
नी	-8.64214
▁go	-8.64257
ic	-8.64293
▁case	-8.64412
्य	-8.64443
▁each	-8.64611
▁à	-8.64642
▁power	-8.64808
▁system	-8.6484
ness	-8.64957
▁होंगे	-8.64968
▁section	-8.65111
▁इसका	-8.65379
▁फ़ाइल	-8.65573
▁both	-8.65705
▁आधार	-8.65723
▁तरफ	-8.65966
o	-8.66032
▁%	-8.66105
▁विषय	-8.66216
▁विश्व	-8.66287
▁सामने	-8.6634
to	-8.66924
िंग	-8.67023
▁order	-8.67046
▁जिसके	-8.67239
ers	-8.67321
▁long	-8.67401
▁development	-8.67513
▁she	-8.6766
▁करेगा	-8.67819
▁देते	-8.67862
▁यही	-8.68001
और	-8.68229
▁उपलब्ध	-8.68246
▁help	-8.68344
▁पूरा	-8.68403
▁तैयार	-8.68456
▁संबंधित	-8.68542
▁An	-8.68627
▁घर	-8.68803
▁called	-8.69408
▁another	-8.69412
▁–	-8.69421
:%	-8.69614
▁करे	-8.69811
▁मार्ग	-8.70202
▁etc	-8.70208
▁सूची	-8.70273
▁Then	-8.70335
▁things	-8.70428
▁उसमें	-8.70561
▁निर्माण	-8.70615
▁nor	-8.70757
▁file	-8.70963
ण	-8.71152
▁वि	-8.71173
▁just	-8.71212
▁बाहर	-8.7132
▁चाहते	-8.71328
रा	-8.71409
▁अलग	-8.71688
▁G	-8.71819
ज़	-8.71877
▁प्रत्येक	-8.7194
▁10	-8.72357
▁three	-8.72603
▁men	-8.72729
▁संख्या	-8.72981
▁indeed	-8.73272
से	-8.7343
▁different	-8.73778
▁याद	-8.7379
▁अवसर	-8.73908
▁here	-8.74008
▁without	-8.74274
▁हों	-8.74324
▁K	-8.74533
▁आपको	-8.74839
▁Do	-8.75112
▁knowledge	-8.75254
▁इसी	-8.75626
▁came	-8.75934
ity	-8.76012
▁बनाने	-8.76229
▁अच्छा	-8.76267
▁National	-8.76427
▁नई	-8.76621
▁F	-8.76865
▁4	-8.77143
▁बड़े	-8.77341
▁R	-8.77444
▁मुख्य	-8.77551
▁लगे	-8.7772
ment	-8.77728
▁T	-8.78196
▁जारी	-8.78196
▁Shri	-8.78302
▁प्रक्रिया	-8.78386
▁W	-8.78443
▁पूरी	-8.78517
▁लगा	-8.78582
▁means	-8.78697
ion	-8.7894
▁तुम्हारी	-8.79018
P	-8.79046
वा	-8.79169
▁account	-8.7925
▁आदि	-8.79265
▁18	-8.79879
▁आपके	-8.79929
▁निश्चय	-8.80072
▁प्र	-8.80138
f	-8.80193
▁much	-8.80322
▁information	-8.80399
▁found	-8.80646
on	-8.80698
▁land	-8.80807
D	-8.81044
▁रखा	-8.81385
▁अनेक	-8.81467
B	-8.81748
h	-8.8179
▁स्वयं	-8.81927
▁उच्च	-8.81984
▁period	-8.82089
▁गये	-8.82142
▁want	-8.82779
च	-8.8287
▁पानी	-8.82924
▁E	-8.83042
▁ज्ञान	-8.83668
the	-8.83721
▁तीन	-8.84079
▁चाहता	-8.84162
u	-8.84284
▁भाषा	-8.84335
▁ऊपर	-8.84342
▁तू	-8.84502
▁OF	-8.84841
▁'%	-8.85021
▁भवन	-8.8507
▁15	-8.85265
▁हेतु	-8.85283
▁N	-8.85388
▁On	-8.85481
p	-8.857
▁बनाया	-8.85816
▁(1)	-8.85899
▁Say	-8.85927
▁बन	-8.85984
▁महत्वपूर्ण	-8.85988
▁unto	-8.8602
k	-8.86075
▁women	-8.86165
▁करेंगे	-8.86509
ड़	-8.8654
▁सं	-8.86594
▁form	-8.8682
▁सामान्य	-8.86931
▁state	-8.86938
▁बैंक	-8.86941
▁<	-8.86946
x	-8.86972
ु	-8.86993
▁जल	-8.87217
le	-8.87268
▁दूर	-8.87358
▁need	-8.87368
ली	-8.87655
▁स्तर	-8.87681
▁truth	-8.87716
▁दुनिया	-8.87833
▁शुरू	-8.87949
T	-8.88227
▁जिसने	-8.88238
▁अर्थ	-8.88504
▁end	-8.88683
▁ध्यान	-8.88999
▁तुम्हारा	-8.89074
▁खुदा	-8.89184
▁become	-8.89189
▁That	-8.89381
▁अधिकार	-8.896
▁धर्म	-8.89782
▁fear	-8.89892
मा	-8.90113
में	-8.90215
▁यहां	-8.9077
ta	-8.90786
▁मैंने	-8.90838
जी	-8.90969
▁created	-8.91021
▁cannot	-8.91038
▁नीचे	-8.91502
us	-8.91517
▁company	-8.91535
▁उत्तर	-8.91683
▁important	-8.91877
सा	-8.91899
▁बेशक	-8.91945
▁देखा	-8.92086
़	-8.92163
▁except	-8.92171
▁सके	-8.92306
▁ठीक	-8.9237
▁क्षेत्रों	-8.92404
▁let	-8.92434
▁find	-8.92565
आ	-8.92577
▁H	-8.92613
▁हाथ	-8.92798
▁माल	-8.93002
▁किन्तु	-8.93118
▁बिना	-8.93235
▁लाभ	-8.93246
िया	-8.93353
▁शक्ति	-8.93413
▁प्रमुख	-8.93511
▁प्रतिशत	-8.93801
▁income	-8.93989
▁What	-8.94001
▁प्रौद्योगिकी	-8.94063
▁रंग	-8.94064
▁taken	-8.94153
▁Re	-8.9419
it	-8.94203
▁गयी	-8.94233
▁message	-8.94504
▁स्पष्ट	-8.94576
nic	-8.94637
▁जबकि	-8.94676
▁देना	-8.94744
▁surely	-8.94805
▁किताब	-8.95038
▁लेकर	-8.95196
▁These	-8.95265
?"	-8.95356
अ	-8.95489
▁ज़मीन	-8.95529
▁क	-8.95708
▁मगर	-8.95769
▁जिसका	-8.95861
▁धरती	-8.95948
▁children	-8.96029
▁known	-8.96037
g	-8.96049
▁today	-8.9606
▁माध्यम	-8.96124
▁मदद	-8.96198
▁पीछे	-8.962
▁>	-8.96592
▁मन	-8.96804
▁government	-8.96862
▁best	-8.97015
▁business	-8.97159
▁दिए	-8.97336
▁रह	-8.97367
▁आर्थिक	-8.97371
▁public	-8.9745
▁अज़ाब	-8.97545
ओ	-8.97549
▁last	-8.97553
▁पूर्ण	-8.97875
▁My	-8.97888
▁various	-8.98183
▁never	-8.98186
▁Minister	-8.98237
▁अतः	-8.98273
▁human	-8.98417
M	-8.98592
▁कृषि	-8.98603
▁होकर	-8.98699
▁6	-8.98818
▁लो	-8.9889
as	-8.98904
ar	-8.98956
▁मूल	-8.99017
▁कंपनी	-8.99119
R	-8.99271
▁देख	-8.99617
▁within	-8.99778
ियां	-9.00222
ये	-9.00311
▁ग	-9.00334
na	-9.00505
▁सु	-9.00566
▁days	-9.00591
▁इनकार	-9.00626
▁done	-9.00837
▁विश्वास	-9.00868
il	-9.00882
▁present	-9.00924
▁रखते	-9.01078
▁इसकी	-9.01186
▁better	-9.01187
▁अवधि	-9.01335
▁themselves	-9.01673
ur	-9.01961
ma	-9.02061
फ	-9.02082
▁amount	-9.02518
▁समाज	-9.0252
▁20	-9.0254
▁जनता	-9.02672
▁small	-9.02827
▁ज्यादा	-9.02921
▁तुमसे	-9.0293
▁जानता	-9.03134
ive	-9.0314
▁body	-9.0315
▁आने	-9.03154
▁खंड	-9.03193
▁evil	-9.03303
पर	-9.03489
▁left	-9.03495
▁लगभग	-9.03715
en	-9.03985
▁times	-9.04017
▁मूल्य	-9.04071
▁list	-9.04211
▁छोड़	-9.04325
▁going	-9.04624
▁कार्यक्रम	-9.04709
▁सारे	-9.0483
▁वहां	-9.04846
G	-9.04965
▁जानकारी	-9.05173
▁मेरा	-9.05175
▁फ़ोल्डर	-9.0524
▁मामले	-9.05323
▁education	-9.05368
▁आदेश	-9.05519
▁क्यों	-9.05575
▁अच्छे	-9.05581
▁आई	-9.05583
▁काफी	-9.05643
▁p	-9.05651
▁विज्ञान	-9.05939
ू	-9.05983
▁द	-9.06215
ul	-9.06355
▁ई	-9.06696
▁लागू	-9.06754
▁ब	-9.06798
▁12	-9.0685
▁चाहे	-9.0696
▁New	-9.06996
▁नीति	-9.0701
▁due	-9.07215
▁put	-9.07216
▁प्रभाव	-9.07579
▁मिल	-9.07592
▁bring	-9.076
▁समूह	-9.07853
▁पत्र	-9.07957
▁अभी	-9.08024
▁सिवा	-9.08044
▁अच्छी	-9.08111
▁उद्योग	-9.08116
▁परिवर्तन	-9.08205
▁जाएगी	-9.08218
▁process	-9.08225
▁दर	-9.08285
▁clear	-9.08699
▁सामाजिक	-9.08809
▁Book	-9.0882
ंग	-9.08869
▁towards	-9.08882
▁8	-9.08984
▁प्रणाली	-9.09042
▁7	-9.09066
F	-9.09105
▁म	-9.09203
man	-9.09208
▁आया	-9.09355
▁स्थापित	-9.09409
▁turn	-9.0944
▁others	-9.09613
▁respect	-9.09616
▁बराबर	-9.09802
▁too	-9.09923
▁call	-9.09986
▁law	-9.10216
▁आवश्यक	-9.10303
▁पी	-9.1042
▁high	-9.10571
▁प्रयास	-9.10602
▁कहीं	-9.10603
▁जमा	-9.10662
को	-9.10739
▁कुल	-9.10839
▁social	-9.11304
▁One	-9.11327
▁large	-9.11513
▁ऋण	-9.11649
▁बे	-9.11686
▁वक्त	-9.11744
▁उसको	-9.12087
▁Central	-9.12115
▁उप	-9.12192
▁जैसा	-9.12298
▁दें	-9.12435
v	-9.12732
▁जानते	-9.12922
▁thou	-9.12947
▁आवश्यकता	-9.13098
▁full	-9.13247
▁http	-9.13251
▁क़ौम	-9.13282
▁ली	-9.1351
दार	-9.13511
at	-9.13598
▁brought	-9.13793
▁सुरक्षा	-9.13855
▁value	-9.13929
▁light	-9.13993
▁heavens	-9.14009
▁चार	-9.14081
▁रहने	-9.14091
▁आए	-9.14113
▁window	-9.14183
▁कोर्इ	-9.14186
▁available	-9.14516
▁जगह	-9.14712
▁think	-9.14727
▁राशि	-9.14892
▁punishment	-9.15028
▁cause	-9.15701
▁चुका	-9.15703
▁language	-9.15722
://	-9.15886
▁free	-9.1591
▁चुके	-9.15998
▁जिससे	-9.16041
यों	-9.16204
▁change	-9.16233
▁support	-9.16354
टी	-9.16356
ism	-9.16362
▁family	-9.164
▁कहने	-9.16423
▁रहते	-9.1649
▁''	-9.16492
▁तुमने	-9.16621
▁लेने	-9.16747
▁अंतर्गत	-9.1681
▁open	-9.16938
▁कु	-9.16979
▁देशों	-9.17003
▁अतिरिक्त	-9.17137
ऋ	-9.17227
▁लोक	-9.17228
▁समान	-9.17269
▁again	-9.17341
ri	-9.17581
▁service	-9.17597
▁death	-9.17607
थ	-9.17646
▁रखने	-9.17712
ले	-9.17787
ti	-9.17865
▁उत्पादन	-9.17899
▁16	-9.1815
▁नया	-9.18179
पूर्ण	-9.18298
▁स्वीकार	-9.18309
▁hand	-9.18424
▁पा	-9.18571
▁old	-9.18808
▁सही	-9.19034
▁x	-9.19139
▁far	-9.19159
▁विभाग	-9.19282
▁अनुसंधान	-9.19328
▁four	-9.19475
▁might	-9.19538
▁यातना	-9.19558
▁मानव	-9.19723
▁Bhavan	-9.1975
▁राष्ट्र	-9.19983
▁नए	-9.20023
section	-9.20253
▁Rs	-9.20315
▁something	-9.20346
फ़	-9.20484
▁चल	-9.21014
▁group	-9.21023
▁non	-9.2104
▁उद्देश्य	-9.2113
▁economic	-9.21298
▁वालों	-9.21354
▁matter	-9.21356
▁b	-9.21378
▁आकार	-9.21405
▁off	-9.21492
▁V	-9.215
▁सीमा	-9.21554
▁co	-9.21625
▁#44;	-9.21682
▁साल	-9.21735
▁उपधारा	-9.2174
ll	-9.21991
गी	-9.22045
▁सा	-9.22163
▁नही	-9.22267
▁Who	-9.22342
▁अधिकारी	-9.22439
▁सुधार	-9.22493
2	-9.22687
▁सहयोग	-9.22908
ent	-9.22924
▁परन्तु	-9.22953
▁परियोजना	-9.23002
▁m	-9.23021
▁data	-9.2311
▁true	-9.23116
▁area	-9.23119
▁आग	-9.23135
▁मूसा	-9.23208
दा	-9.23209
▁सत्य	-9.23327
▁सदस्य	-9.23486
▁क्षमता	-9.23498
▁provided	-9.2354
▁संपर्क	-9.23628
ary	-9.23727
▁आकाश	-9.23751
am	-9.23871
▁मै	-9.2394
▁लाए	-9.24014
}	-9.24063
▁few	-9.24272
▁न्यायालय	-9.24418
▁भर	-9.24452
):	-9.24493
▁जिन्हें	-9.24604
▁जान	-9.2467
U	-9.24706
▁return	-9.24772
▁परिणाम	-9.24807
▁whole	-9.24818
▁वर्षों	-9.24825
▁together	-9.2483
▁provide	-9.24893
▁At	-9.25005
▁कौन	-9.25052
▁level	-9.25096
est	-9.25192
el	-9.25227
—	-9.25352
▁सिर्फ	-9.25454
▁समझ	-9.25457
▁वर्तमान	-9.25465
▁U	-9.25492
0	-9.25631
▁तुमको	-9.25683
▁30	-9.25696
▁de	-9.25709
▁book	-9.25723
ant	-9.25807
▁दिल	-9.25881
▁love	-9.25968
▁व्यापार	-9.2603
▁gave	-9.26033
of	-9.26048
▁नि	-9.26088
▁थीं	-9.26143
▁युद्ध	-9.26164
▁interest	-9.26192
▁already	-9.26202
▁following	-9.26313
▁दृष्टि	-9.26422
▁प्रस्तुत	-9.26478
▁वास्तव	-9.26488
▁self	-9.26519
▁nation	-9.26566
▁Indeed	-9.26606
8	-9.26639
▁वहाँ	-9.26679
▁date	-9.26689
▁Those	-9.26693
▁services	-9.267
▁Rashtrapati	-9.26717
▁केंद्र	-9.26754
▁व्यवस्था	-9.26769
▁countries	-9.26835
▁signs	-9.26844
E	-9.26869
L	-9.26873
▁यात्रा	-9.26956
▁ask	-9.26979
▁बेहतर	-9.27012
▁night	-9.27077
घ	-9.27098
▁खोज	-9.27245
▁डर	-9.27344
▁kg	-9.27416
li	-9.27431
▁हुक्म	-9.27455
▁food	-9.27781
N	-9.27961
▁She	-9.27973
▁विधि	-9.28103
▁स्वास्थ्य	-9.28153
▁विश्वविद्यालय	-9.2816
▁स्थित	-9.28183
▁मिला	-9.28228
▁राम	-9.28229
w	-9.28292
▁शरीर	-9.28304
▁type	-9.28413
ve	-9.28457
ra	-9.28468
▁worship	-9.28486
▁areas	-9.28508
▁Me	-9.28516
1	-9.2858
▁national	-9.28588
िका	-9.28597
▁above	-9.28633
▁बनाए	-9.28769
▁दूसरी	-9.28857
▁based	-9.28868
एँ	-9.28959
▁रात	-9.29053
▁fact	-9.29144
▁making	-9.29202
▁वर्ग	-9.29219
▁follow	-9.29265
▁इतिहास	-9.29308
भ	-9.29327
▁path	-9.29377
▁ख	-9.29395
▁mind	-9.29397
▁पद	-9.29402
▁मु	-9.29447
▁little	-9.29561
रे	-9.29574
▁मान	-9.29577
▁एस	-9.29592
▁हमारा	-9.29902
▁project	-9.29974
▁दिल्ली	-9.29997
▁विवरण	-9.30003
▁निर्णय	-9.3006
▁जिनके	-9.30083
▁देगा	-9.30161
▁himself	-9.30191
K	-9.30284
▁11	-9.30672
▁आसमान	-9.30803
▁देखते	-9.30851
▁Delhi	-9.30905
▁action	-9.30955
▁प्रधानमंत्री	-9.311
▁विंडो	-9.3124
▁view	-9.31244
▁hearts	-9.31326
▁विशिष्ट	-9.31354
▁बच्चों	-9.3148
▁though	-9.31593
▁शब्द	-9.31645
▁policy	-9.31726
▁सर	-9.31818
te	-9.31853
▁वस्तु	-9.31864
▁capital	-9.31871
▁हाल	-9.31891
▁g	-9.31966
▁अंत	-9.32152
ry	-9.32158
▁वास्ते	-9.32272
▁मध्य	-9.323
ाई	-9.32446
and	-9.32499
is	-9.32526
▁able	-9.32575
बी	-9.32591
▁seen	-9.32613
▁प्रदेश	-9.32639
▁जिन्होंने	-9.32683
▁Your	-9.32838
▁until	-9.3291
▁सभा	-9.33073
▁(2)	-9.33082
▁17	-9.33085
▁words	-9.33092
▁निर्धारित	-9.33255
▁संस्थान	-9.33287
▁तौर	-9.33316
▁took	-9.33325
▁around	-9.33353
गा	-9.33412
▁common	-9.33513
▁sector	-9.3359
▁faith	-9.336
age	-9.33683
▁society	-9.33746
▁having	-9.33778
डी	-9.3379
▁कैसे	-9.33813
▁हमेशा	-9.33822
▁विकसित	-9.33875
ँ	-9.34083
▁always	-9.34102
▁still	-9.34104
प्र	-9.34231
ॉ	-9.34326
▁उ	-9.34503
▁ला	-9.34978
▁keep	-9.35055
▁कर्म	-9.35101
la	-9.3513
▁काल	-9.35229
H	-9.35261
▁9	-9.35285
▁members	-9.35315
▁local	-9.35457
▁show	-9.35464
कि	-9.35493
▁विदेशी	-9.35605
▁मांग	-9.35611
▁स्थानीय	-9.35728
um	-9.35935
▁निर्धारण	-9.3603
▁believers	-9.3605
▁ल	-9.36153
▁25	-9.36191
▁आम	-9.36213
वि	-9.36258
▁तहत	-9.36315
▁age	-9.36332
▁side	-9.36461
▁बल	-9.36494
ch	-9.36666
▁whose	-9.36705
ya	-9.36811
▁किस	-9.36825
▁clause	-9.36913
▁भेजा	-9.36934
eth	-9.37002
▁political	-9.37077
▁nothing	-9.37138
▁समाप्त	-9.37293
▁control	-9.37302
▁home	-9.37436
वी	-9.37489
ियाँ	-9.37685
▁बढ़	-9.37769
▁i	-9.37822
▁बदला	-9.37975
▁{	-9.3799
▁कल	-9.38179
▁thing	-9.38183
3	-9.38199
▁अंतिम	-9.38218
▁including	-9.38318
▁along	-9.3834
V	-9.38351
▁therefore	-9.38418
▁निश्चित	-9.38427
▁point	-9.38437
▁1.	-9.38469
▁लगता	-9.38542
▁States	-9.38553
▁परंतु	-9.38777
▁folder	-9.38806
▁whether	-9.3881
▁cent	-9.39041
▁संयुक्त	-9.39084
▁निवेश	-9.39144
▁create	-9.39406
▁religion	-9.39453
▁less	-9.39582
ate	-9.39814
▁छोटे	-9.39882
▁भूमि	-9.39911
▁f	-9.39938
less	-9.39972
▁भूमिका	-9.39977
ठ	-9.39993
ii	-9.40028
▁बी	-9.40114
नि	-9.40166
se	-9.4018
▁संघ	-9.4019
▁five	-9.40204
▁मौजूद	-9.40237
ous	-9.40302
▁जन	-9.40513
▁ओ	-9.40646
et	-9.40669
▁पालन	-9.40711
▁निस्संदेह	-9.40726
▁Show	-9.40834
स्ट	-9.40841
जो	-9.40848
▁बंद	-9.40867
▁received	-9.4091
▁किये	-9.40966
▁ever	-9.40996
▁wrong	-9.41036
▁British	-9.41275
▁खेल	-9.41388
▁growth	-9.41429
▁health	-9.41442
पी	-9.41462
▁संबंधी	-9.41483
▁अनु	-9.41522
▁equal	-9.41578
▁प्रवेश	-9.41712
जा	-9.41753
▁पाया	-9.41766
▁माना	-9.41833
▁house	-9.41837
▁जिसकी	-9.41905
▁Dr	-9.41922
▁J	-9.42011
कार	-9.42046
▁yet	-9.42056
▁उदाहरण	-9.42056
▁heart	-9.42145
वर	-9.42252
▁मंदिर	-9.42353
▁आधारित	-9.4243
▁deeds	-9.42544
▁nature	-9.42576
▁14	-9.426
▁नियंत्रण	-9.42617
▁छवि	-9.42636
▁लक्ष्य	-9.42701
▁t	-9.42749
▁डाल	-9.42775
ौ	-9.42886
▁इ	-9.42982
▁अनुभव	-9.42985
बा	-9.43334
▁term	-9.43341
id	-9.43344
▁निर्दिष्ट	-9.43444
▁रहता	-9.43454
▁further	-9.43463
▁सहायक	-9.4351
▁हिस्सा	-9.43534
▁main	-9.43644
▁became	-9.43677
ै	-9.43686
▁certain	-9.43707
▁child	-9.43819
▁वित्तीय	-9.4388
▁0	-9.43885
ir	-9.43973
▁held	-9.43995
▁वृद्धि	-9.44022
▁राह	-9.44033
▁समिति	-9.44063
▁head	-9.44139
▁धन	-9.44167
▁प्रथम	-9.44296
▁आरंभ	-9.44336
▁kind	-9.44422
▁जन्म	-9.44475
▁मनुष्य	-9.44605
▁स्थापना	-9.44619
▁address	-9.44669
▁c	-9.4468
▁THE	-9.44685
▁leave	-9.44685
▁जाओ	-9.44758
▁Most	-9.44805
▁war	-9.44806
▁सिंह	-9.45069
▁13	-9.45431
▁नियम	-9.45453
We	-9.45566
नाज़िल	-9.45737
▁special	-9.45855
▁मृत्यु	-9.45856
▁Singh	-9.46033
▁त्रुटि	-9.46119
▁लाख	-9.46237
▁मंत्रालय	-9.46389
▁Messenger	-9.46432
▁संविधान	-9.46433
▁money	-9.46507
▁पड़े	-9.4662
▁ज	-9.46717
▁अध्ययन	-9.46801
hi	-9.4684
▁next	-9.46875
▁सका	-9.46983
▁अनुमति	-9.47108
▁required	-9.47115
▁total	-9.47284
▁research	-9.47302
▁tax	-9.47311
▁look	-9.47399
▁भाई	-9.47481
▁प्रबंधन	-9.47499
▁thee	-9.47618
▁एन	-9.47651
▁After	-9.47733
▁लेते	-9.47793
▁industry	-9.47951
▁सक्रिय	-9.47966
▁second	-9.48004
▁son	-9.48018
▁position	-9.48134
▁possible	-9.48175
▁पिछले	-9.48224
▁अलावा	-9.48252
▁Hindi	-9.48272
▁later	-9.48394
▁word	-9.48396
▁PRESIDENT	-9.484
▁दिशा	-9.48711
इस	-9.48748
▁परिवार	-9.48793
▁Z	-9.4884
▁pay	-9.48955
▁जहाँ	-9.48999
▁प	-9.49026
▁several	-9.49077
▁पहली	-9.49272
▁रखता	-9.49307
▁knows	-9.49429
▁reward	-9.49476
मी	-9.49518
▁दिनों	-9.49524
▁कृपया	-9.49535
▁डाक	-9.49627
▁selected	-9.49693
▁hands	-9.49751
▁English	-9.49753
▁दृश्य	-9.49774
▁भीतर	-9.4978
▁भुगतान	-9.49808
▁प्रश्न	-9.49837
▁बाजार	-9.49877
▁Prime	-9.49911
▁लें	-9.49914
▁सर्वर	-9.49976
▁मंत्री	-9.50037
▁How	-9.50056
▁पहचान	-9.50077
▁उत्पन्न	-9.50102
रो	-9.50161
ling	-9.50175
▁प्रेम	-9.50194
▁Please	-9.50222
5	-9.50311
▁सहित	-9.50403
▁दक्षिण	-9.50409
▁अन	-9.50467
▁rate	-9.50687
▁either	-9.50753
▁’	-9.50792
ad	-9.50823
W	-9.51027
ter	-9.51168
▁application	-9.51171
▁समर्थन	-9.51237
▁activities	-9.5129
▁Some	-9.51332
▁occasion	-9.51443
▁thought	-9.51457
▁खाता	-9.51706
▁technology	-9.51799
▁च	-9.51811
▁foreign	-9.52109
ात्मक	-9.52117
ce	-9.52419
▁De	-9.5248
ia	-9.52554
▁certainly	-9.52572
▁जाएँ	-9.52604
▁itself	-9.52639
▁त	-9.52672
un	-9.52785
▁art	-9.52823
उ	-9.52871
z	-9.52937
▁राज	-9.52998
▁read	-9.53079
▁प्रशिक्षण	-9.53081
▁live	-9.53224
▁आदमी	-9.53322
▁fire	-9.53334
▁Ministry	-9.53357
▁मत	-9.53363
▁field	-9.53432
▁हक़	-9.53525
▁went	-9.5355
▁father	-9.5361
▁ऊर्जा	-9.53639
▁वो	-9.53698
ति	-9.53712
▁सुनिश्चित	-9.53713
ंड	-9.53742
▁इस्तेमाल	-9.53831
ni	-9.53876
▁act	-9.53911
▁young	-9.53957
▁सत्ता	-9.53972
▁authority	-9.54076
▁करोड़	-9.54084
ak	-9.54316
▁जाएँगे	-9.54503
▁forth	-9.54538
ऊण्श्छ्ष्	-9.54585
▁production	-9.54635
ीकरण	-9.54644
▁working	-9.54695
▁डी	-9.5472
▁error	-9.54756
▁बच्चे	-9.54793
▁cost	-9.54813
▁वापस	-9.5497
▁financial	-9.54985
▁कला	-9.54987
▁जांच	-9.5503
▁face	-9.55079
▁योग्य	-9.55129
▁उनपर	-9.55173
▁अव	-9.55207
▁लिखा	-9.55286
▁2.	-9.55317
▁क्रिया	-9.55372
▁सन्	-9.55459
▁University	-9.55511
▁मात्रा	-9.55604
▁line	-9.55613
▁वेबसाइट	-9.55709
टा	-9.55831
▁बदल	-9.55908
▁save	-9.55931
▁market	-9.56059
▁प्रकृति	-9.56168
▁खाते	-9.56298
ut	-9.56371
▁provisions	-9.56379
▁अप	-9.564
▁समस्या	-9.56433
▁history	-9.56456
▁शहर	-9.56469
▁प्रारंभ	-9.56502
▁विकल्प	-9.56505
(	-9.56519
▁उठा	-9.56582
▁रख	-9.56623
ting	-9.56676
▁रोग	-9.56716
▁विस्तार	-9.56747
▁scheme	-9.56764
▁राज्यों	-9.56783
ist	-9.5683
▁soul	-9.56863
▁command	-9.56984
▁ह	-9.57199
मान	-9.57218
▁सरकारी	-9.5724
▁current	-9.57324
▁property	-9.57338
▁example	-9.57343
▁अत्यन्त	-9.57376
lo	-9.57415
▁जैसी	-9.57436
▁purpose	-9.57465
▁anything	-9.57506
▁मामलों	-9.57513
▁प्रगति	-9.57565
▁साहित्य	-9.57574
▁पुनः	-9.57667
▁निर्यात	-9.57673
▁Un	-9.57683
▁behind	-9.57705
▁understand	-9.57775
▁पूंजी	-9.5788
▁General	-9.5794
▁previous	-9.57963
▁near	-9.58022
▁संगठन	-9.58143
▁meeting	-9.58159
▁रहो	-9.58164
▁कमी	-9.58202
▁जरूरत	-9.58243
▁मालूम	-9.58284
▁रिपोर्ट	-9.58307
▁court	-9.58344
▁major	-9.58349
▁quality	-9.58365
▁अभि	-9.58384
▁play	-9.58414
▁short	-9.58563
▁सार्वजनिक	-9.58581
▁महान	-9.58593
▁website	-9.58697
up	-9.58697
▁hath	-9.58755
▁बातें	-9.58992
▁Court	-9.59053
▁using	-9.59153
▁पूरे	-9.59199
हा	-9.59214
▁subject	-9.59254
छ	-9.59262
▁पश्चात	-9.59365
▁therein	-9.59372
▁individual	-9.59474
▁सि	-9.59479
▁Congress	-9.5949
amp	-9.59557
▁send	-9.59639
▁established	-9.59718
▁चला	-9.59782
▁यक़ीनन	-9.59905
no	-9.60083
ating	-9.60136
vi	-9.60155
▁फाइल	-9.6016
▁कोशिश	-9.60162
ro	-9.60181
▁question	-9.60268
▁भिन्न	-9.60287
▁greater	-9.60322
▁necessary	-9.60373
▁Pradesh	-9.60457
▁mercy	-9.60457
▁started	-9.60458
▁security	-9.60464
▁देखने	-9.60642
▁Go	-9.60672
▁सदस्यों	-9.60841
▁कांग्रेस	-9.60845
▁केंद्रीय	-9.60912
pr	-9.60946
▁peace	-9.60954
▁000	-9.60994
▁image	-9.61049
▁course	-9.61056
ध	-9.61074
▁पृष्ठ	-9.61164
▁परि	-9.61223
▁role	-9.61274
▁Lo	-9.61301
4	-9.61386
▁whatever	-9.61436
▁शख्स	-9.61478
▁खुद	-9.61484
क़	-9.61543
▁आर	-9.6158
▁asked	-9.61802
पन	-9.61851
▁future	-9.61863
▁higher	-9.61913
▁bank	-9.62031
▁Development	-9.62044
▁गांधी	-9.62059
▁plant	-9.6207
▁ग्रामीण	-9.62128
▁निकल	-9.62177
▁हैः	-9.62331
▁House	-9.62387
▁Thus	-9.62511
▁since	-9.62527
▁पाठ	-9.62531
▁related	-9.62594
▁works	-9.62641
▁+	-9.62739
▁र	-9.62788
▁सक्षम	-9.62919
▁जिनमें	-9.62951
▁share	-9.62991
▁community	-9.63028
वे	-9.63062
rs	-9.63079
▁राजा	-9.63094
▁पेश	-9.6313
▁संसद	-9.63206
▁प्रकाश	-9.63266
▁दिखाएँ	-9.63401
▁कहो	-9.63515
▁Or	-9.63534
ty	-9.63552
▁enter	-9.63632
▁रु	-9.63672
▁sense	-9.63682
▁referred	-9.63725
▁Hindu	-9.6375
▁व्यापक	-9.63769
▁100	-9.63943
▁सामग्री	-9.64035
▁शासन	-9.64046
▁नदी	-9.64085
▁trade	-9.64123
▁revealed	-9.64212
ful	-9.64245
▁effect	-9.64263
▁By	-9.64272
▁students	-9.64309
▁कानून	-9.64373
▁उचित	-9.64432
▁बयान	-9.64473
▁50	-9.64516
▁Now	-9.64556
iv	-9.64707
्र	-9.64815
तो	-9.64914
क्या	-9.65016
▁पुरस्कार	-9.65044
▁दिखाई	-9.65065
▁इतना	-9.65166
▁con	-9.65203
▁got	-9.65205
▁city	-9.65235
▁With	-9.65276
▁verily	-9.6531
▁sign	-9.6538
वीं	-9.65496
▁अमेरिका	-9.65587
im	-9.65594
▁बातों	-9.65599
▁औद्योगिक	-9.65621
RB	-9.65648
▁written	-9.65723
▁गति	-9.65779
▁n	-9.65825
एक	-9.65866
▁आधुनिक	-9.65888
▁संस्था	-9.65945
▁चुनें	-9.65959
▁living	-9.66024
▁guidance	-9.66068
▁बाप	-9.66134
▁institutions	-9.6623
▁पहुंच	-9.66251
▁मुँह	-9.66352
▁office	-9.66385
▁Ram	-9.66488
▁result	-9.66514
▁RRB	-9.66576
▁comes	-9.66647
▁force	-9.66775
▁files	-9.66802
▁21	-9.66831
▁इनमें	-9.66875
▁believed	-9.66936
▁dis	-9.66953
म्	-9.67186
▁देती	-9.67189
▁19	-9.67205
▁once	-9.67212
▁केन्द्र	-9.67317
▁told	-9.67375
▁रक्षा	-9.67389
▁eyes	-9.67408
▁Committee	-9.67423
▁story	-9.67441
▁paid	-9.67468
▁24	-9.67545
▁गुनाह	-9.67644
▁रुप	-9.67668
¤3⁄4	-9.67691
▁till	-9.67743
▁Department	-9.6785
▁बदले	-9.67863
▁specified	-9.6793
▁रहेंगे	-9.68005
सं	-9.68127
▁सुविधा	-9.68158
▁बा	-9.68187
मे	-9.68202
▁भविष्य	-9.68336
▁months	-9.6837
▁रखो	-9.68412
ha	-9.68489
▁योगदान	-9.68515
▁स्वतंत्रता	-9.68535
▁एम	-9.68561
ated	-9.68666
ci	-9.6873
▁thy	-9.68791
▁पड़ा	-9.6884
▁पहुँचा	-9.68877
▁प्रकट	-9.68953
▁महत्व	-9.68958
▁वजह	-9.68972
▁*	-9.68975
▁हे	-9.68982
ंस	-9.68996
▁Union	-9.68996
▁साफ	-9.69036
▁doing	-9.69067
▁एक्स	-9.69109
▁key	-9.69127
▁server	-9.69159
▁सो	-9.69169
▁गैर	-9.69235
▁बोर्ड	-9.69286
▁progress	-9.69376
▁पुस्तक	-9.69641
ance	-9.69777
ge	-9.69813
▁problem	-9.69826
▁चयनित	-9.69883
▁access	-9.69942
▁sure	-9.70027
ine	-9.70077
▁start	-9.70112
▁Parliament	-9.70124
▁लाल	-9.70169
co	-9.70237
▁Bank	-9.70265
▁बुरा	-9.70277
पुर	-9.70336
▁संभव	-9.70372
इ	-9.70434
▁List	-9.70437
▁Muslim	-9.70457
▁भ	-9.70475
▁manner	-9.70516
▁Open	-9.70521
▁party	-9.70532
▁basis	-9.70646
▁फल	-9.70654
▁goods	-9.70711
▁Name	-9.70714
▁31	-9.70733
▁computer	-9.70735
▁seek	-9.70778
▁energy	-9.70785
!"	-9.70795
▁रकम	-9.70882
▁(19	-9.70883
▁reason	-9.70889
▁Y	-9.70905
▁बने	-9.70924
▁चाहिये	-9.70926
▁blood	-9.71019
▁Man	-9.71035
वाद	-9.71055
ख़ुदा	-9.71143
▁turned	-9.71227
▁किंतु	-9.71255
▁निजी	-9.7128
▁benefit	-9.71385
▁building	-9.71417
▁international	-9.71444
The	-9.71485
▁चले	-9.71517
▁शायद	-9.71585
di	-9.71604
▁जवाब	-9.71608
▁बचा	-9.71651
▁considered	-9.71669
▁complete	-9.71681
Name	-9.71712
▁o	-9.71717
▁व्यक्तियों	-9.7172
▁रखना	-9.71747
▁Surely	-9.71751
▁why	-9.71776
▁अवश्य	-9.71823
▁राय	-9.71853
▁आवेदन	-9.71864
▁appointed	-9.71946
▁movement	-9.71969
▁Could	-9.71977
▁mother	-9.72006
ne	-9.72021
▁size	-9.72057
बे	-9.7213
▁meet	-9.72318
▁Moses	-9.72365
¥	-9.7263
▁Mr	-9.72677
▁single	-9.72737
▁आशा	-9.72818
▁मा	-9.7288
▁डिस्क	-9.72885
▁Constitution	-9.72918
▁फ़	-9.73006
▁problems	-9.73039
▁soon	-9.7305
▁बाल	-9.73054
▁text	-9.73156
▁however	-9.73221
▁स्रोत	-9.7325
▁century	-9.73398
ot	-9.73426
▁मर	-9.73427
sa	-9.73528
▁remember	-9.73583
ted	-9.73613
▁poor	-9.73639
▁school	-9.73694
▁mode	-9.73711
▁समारोह	-9.7376
▁Sa	-9.73793
▁Al	-9.73849
ण्ड	-9.73882
▁श	-9.74036
▁transfer	-9.74101
▁care	-9.74154
▁निधि	-9.74207
▁Verily	-9.74248
▁close	-9.74263
▁उपकरण	-9.74401
▁purposes	-9.74454
तर	-9.74513
▁संदर्भ	-9.74571
▁ना	-9.7461
▁दशा	-9.7474
tic	-9.74825
▁village	-9.74862
▁न्याय	-9.74889
▁modern	-9.74895
िन	-9.74982
html	-9.7501
▁सफल	-9.75065
▁लागत	-9.7535
▁Gandhi	-9.75355
de	-9.75364
▁डाला	-9.7541
▁general	-9.75467
▁don	-9.75489
▁बंगाल	-9.75507
▁प्रभावित	-9.75526
▁देंगे	-9.75566
▁कार्यालय	-9.75583
▁Council	-9.75587
▁terms	-9.75801
▁passed	-9.75825
▁सिर	-9.75922
▁past	-9.7593
▁पांच	-9.75989
ड़ा	-9.7606
▁parts	-9.76064
▁आयोजित	-9.76135
▁Muslims	-9.76201
▁Bengal	-9.76222
▁मुद्रा	-9.76222
▁network	-9.76279
▁post	-9.76295
▁Select	-9.76319
▁X	-9.76349
▁पक्ष	-9.76386
▁तंत्र	-9.76516
▁निर्धारिती	-9.76564
▁needs	-9.76573
▁management	-9.7663
▁visit	-9.76635
▁सकें	-9.76637
▁However	-9.76682
▁changes	-9.76684
▁सेना	-9.76783
▁tree	-9.77025
▁सफलता	-9.77208
▁संगीत	-9.77236
▁Ka	-9.77256
▁सह	-9.77384
▁ten	-9.77412
▁समुदाय	-9.7742
▁wish	-9.77462
▁प्रस्ताव	-9.77477
▁पार	-9.77483
va	-9.77576
▁प्रदर्शन	-9.77671
ts	-9.77804
▁वास्तविक	-9.77811
▁increase	-9.77896
▁issued	-9.77903
▁प्रकाशित	-9.77971
▁hope	-9.78099
▁मुक्त	-9.78256
▁natural	-9.78329
▁सम	-9.78332
▁ढंग	-9.78335
▁often	-9.78385
▁pro	-9.78388
▁दूसरा	-9.78445
▁strong	-9.7856
▁assessee	-9.78635
▁लेखा	-9.78736
mukherjee	-9.78737
pranab	-9.78737
▁यू	-9.78789
▁चुकी	-9.78795
▁hard	-9.78863
▁task	-9.78953
▁INDIA	-9.79086
▁मुखर्जी	-9.79092
दी	-9.79154
▁संरचना	-9.79239
▁persons	-9.79256
▁condition	-9.79264
▁gives	-9.79271
▁books	-9.79286
▁Information	-9.79296
▁Us	-9.79312
▁conditions	-9.79345
▁मार	-9.79357
▁air	-9.79372
▁गुण	-9.7956
▁भारी	-9.79604
▁allowed	-9.79622
▁culture	-9.79667
▁पर्याप्त	-9.79706
▁sea	-9.79707
pur	-9.79788
har	-9.79858
▁credit	-9.79878
he	-9.79974
▁source	-9.7999
sh	-9.79999
▁आत्मा	-9.80001
▁class	-9.80137
▁सुरक्षित	-9.8017
▁freedom	-9.80273
▁रोक	-9.8029
▁राजनीतिक	-9.80299
▁य	-9.80327
▁टी	-9.80346
ah	-9.80362
▁गिर	-9.80402
▁प्रमाण	-9.80405
▁Fire	-9.80435
▁नेटवर्क	-9.80478
▁taking	-9.80478
▁everything	-9.80529
▁संस्कृति	-9.80536
क्स	-9.80568
▁makes	-9.80569
▁हासिल	-9.80582
▁पहुँच	-9.80612
▁अंग	-9.80617
▁लाने	-9.80625
▁according	-9.80745
tra	-9.80815
tax	-9.80837
▁चर्चा	-9.80919
▁संरक्षण	-9.80958
भी	-9.80989
▁disbelieve	-9.80999
▁thus	-9.81052
▁निम्नलिखित	-9.811
me	-9.81121
▁भावना	-9.81146
▁messages	-9.81265
¤°	-9.81311
▁efforts	-9.81346
¤	-9.8136
▁trust	-9.81392
▁assessment	-9.81415
▁घटना	-9.81436
▁creation	-9.81519
▁Public	-9.81523
Y	-9.8153
वादी	-9.81549
वार	-9.8155
▁दिवस	-9.81573
▁million	-9.81648
▁doubt	-9.81664
▁सेवाओं	-9.81708
▁यद्यपि	-9.81943
▁केन्द्रीय	-9.8196
▁अल	-9.81975
▁none	-9.82
हम	-9.8205
▁कहना	-9.82105
▁स्कूल	-9.82134
▁tell	-9.82242
▁आयात	-9.82306
▁शब्दों	-9.82321
op	-9.82347
ष	-9.82355
▁कदम	-9.82377
▁six	-9.82381
▁लग	-9.82391
for	-9.82534
▁सम्मेलन	-9.82575
▁आपकी	-9.82665
▁व्यक्त	-9.82668
▁outside	-9.82691
▁बनी	-9.82701
▁सीधे	-9.82735
र्	-9.82738
▁region	-9.82775
▁बधाई	-9.82777
▁समझा	-9.82779
▁निकट	-9.82789
ian	-9.82874
ंत	-9.82955
▁बाग़	-9.82998
▁प्रमाणपत्र	-9.831
गत	-9.83197
▁आयोग	-9.83207
▁मित्र	-9.83216
▁महिला	-9.83251
▁really	-9.83281
▁सुन	-9.83298
▁neither	-9.83307
▁religious	-9.83314
▁सम्मान	-9.83394
▁contact	-9.83398
र्स	-9.83469
स्त	-9.8353
▁विशाल	-9.83632
▁ones	-9.83651
▁duty	-9.83735
त्व	-9.8378
▁22	-9.83817
▁उपस्थित	-9.83931
▁Co	-9.83954
▁शक	-9.83998
ख़	-9.84036
▁pre	-9.84055
ish	-9.84104
▁hear	-9.8412
▁बताया	-9.84128
▁developed	-9.84207
hether	-9.84257
▁चयन	-9.84311
▁forward	-9.84355
▁पैग़म्बर	-9.84371
▁विरुद्ध	-9.84377
▁saying	-9.84429
▁training	-9.84432
▁Muhammad	-9.84466
▁dead	-9.84499
▁loss	-9.84541
▁संसाधन	-9.84543
हर	-9.84677
▁वर्णन	-9.84679
▁industrial	-9.84791
▁member	-9.84797
▁add	-9.84823
▁@	-9.84873
▁Let	-9.84919
▁witness	-9.84962
▁Institute	-9.84968
be	-9.84975
▁woman	-9.85034
ाना	-9.85062
▁Such	-9.85063
▁alone	-9.85079
▁आता	-9.85085
▁खर्च	-9.85089
▁जिला	-9.85118
▁छोटी	-9.85148
▁अता	-9.85211
▁entire	-9.85222
▁डॉ	-9.85258
▁Israel	-9.85287
▁उत्पाद	-9.85341
▁अध्यक्ष	-9.85377
▁...	-9.85425
▁बैठे	-9.85429
ang	-9.85614
▁रि	-9.85758
▁बाज़	-9.85761
▁population	-9.8579
▁programme	-9.85807
▁early	-9.85859
▁followed	-9.85861
▁least	-9.85947
▁कंप्यूटर	-9.85956
▁Su	-9.86033
ड़े	-9.86129
▁पश्चिम	-9.86137
▁कवि	-9.86158
▁wealth	-9.86185
▁छोड़कर	-9.86262
▁price	-9.86282
▁function	-9.86285
▁matters	-9.86299
▁literature	-9.86329
▁Error	-9.86438
सर	-9.86552
▁फ	-9.86621
▁2000	-9.86736
▁payment	-9.86749
▁व्यवहार	-9.86764
▁बता	-9.86802
▁Add	-9.86819
▁रखी	-9.86883
▁पुरुष	-9.86895
▁Be	-9.8696
▁space	-9.87048
▁तरीके	-9.87099
ial	-9.87136
ja	-9.87144
▁month	-9.8715
▁बैठक	-9.87153
▁23	-9.87257
▁सोच	-9.87272
▁प्रभावी	-9.87276
▁People	-9.87276
▁disease	-9.87281
▁जोड़ें	-9.87345
▁रक्त	-9.87415
▁धार्मिक	-9.87604
▁ईश्वर	-9.87687
▁हालत	-9.87765
▁File	-9.8784
▁Canno	-9.87842
▁ब्याज	-9.87892
▁तुमपर	-9.87898
▁Even	-9.87898
▁संपत्ति	-9.87932
▁भाव	-9.87944
▁Prophet	-9.87998
▁अगले	-9.88099
▁provision	-9.88233
▁ऑफ	-9.88245
▁exchange	-9.88295
▁अवस्था	-9.88298
▁वैज्ञानिक	-9.88354
▁28	-9.884
▁temple	-9.88404
▁write	-9.8843
▁सेट	-9.88443
▁top	-9.88503
वह	-9.88576
▁global	-9.8858
▁संशोधन	-9.88583
▁गर्इ	-9.88605
▁opens	-9.88697
▁निम्न	-9.88705
▁रखे	-9.88754
▁अपेक्षा	-9.88794
▁रचना	-9.88853
▁प्राकृतिक	-9.88945
▁अधिकारियों	-9.88976
▁Board	-9.89051
▁वित्त	-9.89059
▁प्राचीन	-9.89157
▁आते	-9.89163
▁Not	-9.89188
▁चित्र	-9.8933
▁run	-9.89404
▁भेज	-9.89469
▁Na	-9.89584
▁spirit	-9.89611
▁निकाल	-9.89613
▁पि	-9.89627
रू	-9.89653
▁रखें	-9.89713
▁(3)	-9.89748
शा	-9.89896
▁capacity	-9.89954
▁half	-9.89955
▁भोजन	-9.89973
करण	-9.89977
▁दस	-9.90006
पत्र	-9.90009
▁private	-9.90011
▁खोल	-9.90022
स्	-9.90033
▁महा	-9.90086
▁जाये	-9.90094
go	-9.90121
▁नमाज़	-9.90146
▁प्रधान	-9.90277
▁परीक्षा	-9.90325
▁लघु	-9.90421
▁search	-9.90425
मन	-9.90493
▁Section	-9.90531
▁गुणवत्ता	-9.90571
▁firm	-9.90587
▁आंदोलन	-9.90645
▁संस्थानों	-9.90655
▁भू	-9.90766
▁Is	-9.90772
▁ex	-9.90794
ात	-9.90833
ised	-9.90834
कारी	-9.90891
▁particular	-9.90906
▁3.	-9.90997
ान	-9.91013
आख़िरत	-9.91061
▁Sabha	-9.91067
▁saw	-9.91268
यां	-9.91275
▁include	-9.91341
▁strength	-9.91352
▁0.	-9.91376
▁लेना	-9.91453
▁La	-9.91454
ies	-9.91469
▁27	-9.91483
▁वीडियो	-9.91505
▁k	-9.91509
▁खा	-9.9157
▁Con	-9.91592
कों	-9.91608
ंक	-9.91613
▁स्व	-9.91654
▁समाधान	-9.91674
▁पाने	-9.91677
▁26	-9.91684
▁eat	-9.91724
जन	-9.9176
▁almost	-9.91789
▁mankind	-9.91819
▁seven	-9.91837
▁मिली	-9.91867
ence	-9.91908
▁चिकित्सा	-9.91945
▁80	-9.92011
▁wife	-9.92079
▁पुलिस	-9.92081
pa	-9.9212
▁High	-9.92236
▁Commission	-9.92239
▁relat	-9.92251
▁दल	-9.92274
▁rule	-9.92349
▁deny	-9.92376
▁spread	-9.925
▁समझते	-9.92603
▁सारी	-9.92606
▁experience	-9.9263
▁मालिक	-9.9266
ड़ी	-9.92669
▁ज़रूर	-9.92719
▁गो	-9.92722
▁products	-9.92726
▁शीघ्र	-9.92742
ever	-9.92758
▁resources	-9.92794
कर्ता	-9.92797
िल	-9.92885
tion	-9.92937
▁तारीख	-9.92939
▁करनी	-9.9295
▁मि	-9.92952
▁खड़े	-9.92997
▁जल्दी	-9.93028
▁क्षमा	-9.9306
▁प्रणब	-9.93084
▁Ma	-9.93128
▁सात	-9.93154
▁Mukherjee	-9.93187
▁demand	-9.93236
▁Merciful	-9.93246
▁संसार	-9.93255
▁ता	-9.93305
▁बनाना	-9.93359
ंद	-9.93406
nd	-9.93434
▁material	-9.93448
▁मजबूत	-9.93531
▁sun	-9.93537
▁writing	-9.93539
▁enough	-9.9354
▁lost	-9.93561
▁ground	-9.93585
▁अधिकांश	-9.93606
▁continue	-9.93635
6	-9.93646
▁पश्चात्	-9.93657
▁बन्दों	-9.93745
▁फेर	-9.93749
न्द	-9.9384
line	-9.93881
▁lot	-9.93893
▁earlier	-9.93894
▁operation	-9.93961
▁brother	-9.93965
▁guide	-9.9398
▁जरूरी	-9.94057
▁हिन्दी	-9.94132
▁across	-9.94154
press	-9.94162
▁=	-9.94178
यह	-9.94311
▁ब्रिटिश	-9.94367
▁हिदायत	-9.94382
▁लौट	-9.94384
▁desire	-9.94413
▁angels	-9.9453
▁raised	-9.94604
▁real	-9.94642
ol	-9.94687
▁accept	-9.94705
wa	-9.94735
▁cases	-9.94735
▁गलत	-9.94762
▁छोटा	-9.94784
▁उन्हीं	-9.9479
▁hold	-9.94885
▁science	-9.94945
▁farmers	-9.94953
▁environment	-9.94977
▁रहना	-9.94998
ार	-9.9503
▁बोल	-9.95041
ee	-9.95042
▁स्थायी	-9.95157
▁शांति	-9.95289
▁संकेत	-9.95297
▁आपका	-9.9539
ji	-9.9542
▁kept	-9.95443
▁structure	-9.95545
▁torment	-9.95563
▁सीमित	-9.95632
▁report	-9.95646
▁पर्यावरण	-9.9566
iii	-9.95671
ाव	-9.95722
▁rest	-9.95817
▁40	-9.95821
▁आती	-9.95852
▁(%	-9.95858
▁अनिवार्य	-9.95859
kar	-9.95923
▁मानते	-9.96041
▁plan	-9.96127
▁क़सम	-9.96171
▁मिलता	-9.96189
▁करनेवालों	-9.96235
पा	-9.96274
▁lead	-9.96315
▁receive	-9.96347
per	-9.96389
▁rich	-9.96394
▁रे	-9.96446
▁विरोध	-9.96468
▁शैतान	-9.9653
िश	-9.96552
दर	-9.96585
men	-9.96586
▁guided	-9.96624
led	-9.96636
▁रहती	-9.9665
▁शैली	-9.96712
▁reach	-9.96826
▁personal	-9.96834
गे	-9.9687
▁district	-9.9687
▁fight	-9.96889
▁किसानों	-9.96948
मु	-9.97007
▁Islam	-9.97011
▁उल्लेख	-9.97035
▁promise	-9.97103
▁बहु	-9.97136
11	-9.97193
▁लिख	-9.97213
▁ensure	-9.97254
▁investment	-9.97259
▁महीने	-9.97308
्त	-9.97439
▁carried	-9.97442
▁rights	-9.97539
टे	-9.97544
▁projects	-9.9763
▁तुलना	-9.97692
क्ष	-9.97737
▁कहेंगे	-9.97794
▁पथ	-9.97887
▁astray	-9.97933
▁पड़	-9.97934
▁bear	-9.97979
▁लि	-9.98029
▁अंतर	-9.9804
▁decision	-9.98043
▁mail	-9.98079
▁निर्मित	-9.98105
▁user	-9.98139
pi	-9.98144
▁इस्लाम	-9.98173
▁character	-9.98216
साथ	-9.98232
▁व्यक्तिगत	-9.98278
¥	-9.98302
▁success	-9.9834
▁below	-9.98365
▁South	-9.98435
▁जाति	-9.98445
▁शताब्दी	-9.9855
बार	-9.9855
▁rural	-9.98613
▁दिखा	-9.98631
▁decided	-9.98657
▁शुल्क	-9.98672
▁sound	-9.98749
▁इबराहीम	-9.98749
▁third	-9.98753
▁remain	-9.98786
▁big	-9.98792
▁संघर्ष	-9.988
▁issue	-9.98801
▁color	-9.98806
▁शेष	-9.98843
▁economy	-9.9886
अपने	-9.98955
▁दिलों	-9.99038
बल	-9.99054
▁आपने	-9.99094
दूसरे	-9.9912
▁w	-9.99127
ized	-9.99188
▁Ra	-9.99194
▁ड	-9.99201
▁गिरोह	-9.99217
▁सौ	-9.99335
▁बिल्कुल	-9.99366
▁ख़बर	-9.99397
▁प्रयोजनों	-9.99477
आई	-9.995
्यू	-9.99514
▁speak	-9.99528
▁आत्म	-9.99528
खा	-9.9954
ise	-9.99558
▁West	-9.99597
▁कार्यों	-9.99604
▁तरफ़	-9.99612
▁प्रतीक	-9.9963
▁says	-9.99695
▁कठिन	-9.99724
रि	-9.99725
ally	-9.99776
न्	-9.99854
फिर	-9.99921
▁एल	-10.0003
▁सच्चे	-10.0013
▁रहेगा	-10.0019
▁try	-10.002
▁लगी	-10.0022
da	-10.0023
▁Have	-10.0035
▁forms	-10.0036
▁सुना	-10.0047
▁सम्मिलित	-10.0049
▁घोषणा	-10.0049
▁खुलती	-10.0049
▁व्यय	-10.0051
one	-10.0052
झ	-10.0054
▁विचारों	-10.0056
▁सम्बन्ध	-10.0061
j	-10.0062
▁नगर	-10.0063
▁भली	-10.0076
▁move	-10.0081
▁prepared	-10.0096
tu	-10.01
ud	-10.0104
▁योग	-10.011
▁जिसको	-10.0112
▁produce	-10.0113
▁अत्यंत	-10.0125
्‍	-10.0127
▁जे	-10.0135
ization	-10.0141
▁बढ़ाने	-10.0143
▁prayer	-10.015
▁अंग्रेजी	-10.0152
▁situation	-10.0152
नाथ	-10.0153
▁god	-10.0154
▁मौजूदा	-10.0158
▁feel	-10.0162
टर	-10.0169
▁front	-10.0171
▁प्रदर्शित	-10.0182
▁unbelievers	-10.0185
▁अप्रैल	-10.0189
▁righteous	-10.0193
▁From	-10.0197
ंट	-10.0198
▁failed	-10.0199
बद्ध	-10.02
▁लगाया	-10.0202
त्र	-10.0204
▁हित	-10.0207
▁April	-10.0216
▁सदैव	-10.0221
▁news	-10.0224
वान	-10.0227
क्	-10.0235
▁अति	-10.0238
▁low	-10.0248
▁निशानियाँ	-10.0253
▁Their	-10.0254
▁approach	-10.0255
▁युवा	-10.0264
▁डेटा	-10.0269
▁मुस्लिम	-10.0275
▁आयु	-10.0279
▁East	-10.028
▁places	-10.028
▁खरीद	-10.0282
▁Chief	-10.0286
▁हालाँकि	-10.0287
▁check	-10.0287
▁stand	-10.0291
▁मार्च	-10.0292
▁चलते	-10.0298
▁संस्कृत	-10.0299
▁happy	-10.0304
▁वायु	-10.0309
▁stage	-10.0311
▁lower	-10.0317
▁१९	-10.0317
▁inter	-10.0318
▁इंडिया	-10.0319
▁institution	-10.0324
ities	-10.033
▁states	-10.0331
▁सामान	-10.0334
▁provides	-10.0339
▁coming	-10.0341
▁test	-10.0343
▁अनुच्छेद	-10.0352
▁video	-10.0353
▁सख्त	-10.0357
▁Sanskrit	-10.0357
▁leaders	-10.0357
यर	-10.038
▁भा	-10.0386
▁United	-10.0395
▁built	-10.0395
▁अंदर	-10.0403
▁पहला	-10.0404
▁birth	-10.0408
ाँ	-10.041
7	-10.0418
▁मिलने	-10.0421
▁बढ़ावा	-10.0423
▁wide	-10.0423
▁actually	-10.0425
▁Commissioner	-10.0443
▁disbelievers	-10.0444
▁विवाह	-10.0448
▁difficult	-10.045
▁direct	-10.0454
▁page	-10.0454
▁अर्थव्यवस्था	-10.0459
अल्लाह	-10.0464
▁TO	-10.0467
जे	-10.0468
▁ज़	-10.047
▁Use	-10.0474
▁भूल	-10.0479
ac	-10.0481
▁Technology	-10.0481
▁नये	-10.0483
▁नियत	-10.0487
▁behalf	-10.0487
▁हस्ताक्षर	-10.049
▁May	-10.0493
▁status	-10.0494
▁Ba	-10.0496
▁साधारण	-10.0496
▁published	-10.0503
▁अपील	-10.0503
▁हल	-10.0507
▁उपबंध	-10.0507
▁तेजी	-10.0509
▁इनके	-10.0518
ative	-10.0526
▁study	-10.0536
▁पे	-10.0536
▁evidence	-10.0539
▁Pranab	-10.054
▁l	-10.0545
▁opportunity	-10.0547
▁दृष्टिकोण	-10.0547
▁issues	-10.0553
▁हृदय	-10.0553
>	-10.0561
बाहरी	-10.0564
▁बह	-10.0564
▁श्रेणीः	-10.0566
ver	-10.0566
▁तेल	-10.0569
▁आपस	-10.0577
▁औ	-10.0581
▁सांस्कृतिक	-10.0582
ृ	-10.0582
▁groups	-10.0584
▁युग	-10.0592
▁river	-10.0594
▁Where	-10.0598
AL	-10.0601
िए	-10.0605
▁physical	-10.0606
▁style	-10.0607
तम	-10.0613
▁crore	-10.0617
ही	-10.0621
▁friends	-10.0628
▁relations	-10.0632
▁rules	-10.0632
ियन	-10.0633
▁During	-10.0634
▁समुद्र	-10.0637
land	-10.0639
▁शीर्ष	-10.064
▁प्रशासन	-10.0645
▁परिषद	-10.0647
▁morning	-10.0647
▁poet	-10.0648
▁besides	-10.0648
▁reached	-10.0649
▁whoever	-10.0649
▁ईसा	-10.0649
▁रोजगार	-10.065
▁पड़ता	-10.0653
▁प्रोग्राम	-10.0659
▁wrote	-10.066
▁मिट्टी	-10.066
यू	-10.067
▁sin	-10.0675
▁Income	-10.0676
मय	-10.0678
▁विधान	-10.0687
ॅ	-10.0691
▁lives	-10.0692
्या	-10.0702
▁हवा	-10.071
▁r	-10.0719
▁वस्तुओं	-10.0727
▁माँ	-10.0727
▁वैश्विक	-10.0728
▁हानि	-10.073
▁पकड़	-10.0735
9	-10.0737
▁cut	-10.0745
काल	-10.0746
],	-10.0756
▁पद्धति	-10.0757
▁letter	-10.0757
▁रुपये	-10.076
si	-10.0763
con	-10.0763
▁die	-10.0763
▁meaning	-10.0763
▁पिता	-10.0763
▁document	-10.0764
▁श्रेणी	-10.0765
▁बनाई	-10.0765
▁तर्क	-10.0771
▁बढ़ा	-10.0771
रूप	-10.0772
▁sum	-10.0772
▁व्य	-10.0777
▁infrastructure	-10.0782
po	-10.0787
▁अंतरराष्ट्रीय	-10.0796
▁दर्शन	-10.0797
▁caused	-10.0799
▁fast	-10.0802
▁values	-10.0806
▁खाद्य	-10.0811
▁लेता	-10.0813
▁निर्भर	-10.0827
▁तकनीकी	-10.0836
▁विनिर्दिष्ट	-10.0836
यें	-10.084
▁especially	-10.0843
▁बिल	-10.0843
▁concerned	-10.0857
▁पाक	-10.0857
▁original	-10.086
▁स्वामी	-10.0862
आर	-10.0866
▁गांव	-10.0869
▁स्वरूप	-10.0875
all	-10.0875
▁इच्छा	-10.0878
▁बनाकर	-10.0881
ical	-10.0882
ring	-10.0883
▁नियुक्त	-10.0883
▁60	-10.0889
ig	-10.0892
▁accepted	-10.0893
▁पार्टी	-10.0893
▁देखो	-10.0894
▁Save	-10.0898
▁नसीहत	-10.0898
▁सलाह	-10.0904
▁पस	-10.0906
ru	-10.0906
▁सिस्टम	-10.0907
▁facilities	-10.0912
▁उपयुक्त	-10.0913
▁मी	-10.0915
▁छ	-10.0922
▁increased	-10.0925
▁बुरी	-10.0929
▁copy	-10.0935
▁easy	-10.0939
▁International	-10.096
▁वन	-10.0965
हरगिज़	-10.0967
▁flow	-10.097
▁प्रसिद्ध	-10.0971
External	-10.0971
▁संभावना	-10.0972
▁गुना	-10.0977
▁details	-10.0979
▁similar	-10.098
▁Republic	-10.0981
▁providing	-10.0988
▁प्रत्यक्ष	-10.099
▁cultural	-10.099
▁जिनका	-10.099
▁सिद्ध	-10.0991
▁क़यामत	-10.0992
िस	-10.0992
वें	-10.0996
▁rather	-10.1002
यी	-10.1004
▁thereof	-10.1008
▁दिखाया	-10.1011
▁car	-10.1014
▁देखें	-10.1014
▁giving	-10.1018
lu	-10.1019
▁खोलें	-10.1021
▁Category	-10.1025
ana	-10.1028
▁क्षेत्रीय	-10.1031
▁मार्गदर्शन	-10.1044
▁lo	-10.1044
▁1,	-10.1046
hu	-10.1051
▁कुंजी	-10.1052
▁अधिकतम	-10.1056
ाल	-10.1056
▁apply	-10.1057
▁prescribed	-10.1065
▁North	-10.1068
▁जीव	-10.1073
▁बिजली	-10.1073
▁सरल	-10.1088
▁Officer	-10.109
ka	-10.1095
▁began	-10.1104
▁responsible	-10.1113
▁answer	-10.1117
▁महिलाओं	-10.1117
गु	-10.1117
▁harm	-10.112
▁प्रयासों	-10.1122
▁जहन्नुम	-10.1128
▁belongs	-10.1128
ow	-10.1136
▁दिये	-10.1137
▁समक्ष	-10.1144
▁room	-10.1148
▁निरंतर	-10.1148
▁अधिकतर	-10.1149
▁चि	-10.1149
▁परस्पर	-10.1155
▁specific	-10.1161
▁घरों	-10.1174
▁संग्रह	-10.1177
ंच	-10.1179
▁stone	-10.118
▁विस्तृत	-10.1192
▁मेल	-10.1192
▁कठोर	-10.1198
तुम	-10.1199
ुल	-10.1202
▁क़	-10.1207
▁बि	-10.1211
▁हा	-10.1211
▁simple	-10.1212
▁Hereafter	-10.1212
▁central	-10.1215
▁World	-10.1217
▁event	-10.1218
▁कहानी	-10.1225
▁इतनी	-10.1228
▁बीमा	-10.1232
▁While	-10.1233
एस	-10.124
▁कटौती	-10.1247
ip	-10.1259
▁2007	-10.1267
▁2005	-10.1274
▁method	-10.128
▁notice	-10.1281
▁unless	-10.1287
डे	-10.1293
''	-10.1296
इन	-10.1301
▁led	-10.1302
▁29	-10.1303
▁cast	-10.1313
▁पीठ	-10.1321
▁पसंद	-10.1327
▁sky	-10.133
▁अधि	-10.1331
om	-10.1334
बर	-10.1334
▁justice	-10.1334
mo	-10.1337
▁loan	-10.134
▁नियमों	-10.1342
▁मौसम	-10.1348
ium	-10.1354
▁हालांकि	-10.1356
▁fund	-10.1361
▁शक़	-10.1364
▁programmes	-10.1369
▁लोड	-10.1373
▁लेखक	-10.1383
▁program	-10.1385
▁lie	-10.1394
▁संस्करण	-10.1399
ag	-10.14
▁display	-10.1406
▁अभिलेख	-10.1406
▁becomes	-10.1407
▁record	-10.1409
▁जोर	-10.1411
10	-10.1413
▁yourselves	-10.1413
▁beginning	-10.142
–	-10.1421
▁अरब	-10.1427
▁उपचार	-10.1429
▁झ	-10.1431
▁returned	-10.1432
▁ways	-10.1433
▁Service	-10.1433
▁instrument	-10.1441
▁base	-10.1445
▁पत्थर	-10.1446
▁हिन्दू	-10.1449
▁idea	-10.1456
▁कविता	-10.1461
▁संचार	-10.147
▁lakh	-10.1477
▁वार्षिक	-10.148
▁पुनर्	-10.1481
▁bar	-10.1482
▁y	-10.1483
अपनी	-10.1485
▁potential	-10.1485
▁कै	-10.1485
▁music	-10.1489
मैं	-10.1489
सन	-10.1493
▁device	-10.1499
▁आयोजन	-10.1502
न्न	-10.1502
▁जाँच	-10.1509
▁Vi	-10.1514
▁beyond	-10.1514
▁असफल	-10.1515
▁मिले	-10.1524
▁वी	-10.1528
▁सामना	-10.1533
▁वायदा	-10.1536
▁instead	-10.1538
▁करनेवाला	-10.1538
▁स्पष्टीकरण	-10.1539
▁heaven	-10.1543
▁माता	-10.1543
▁रो	-10.1563
▁king	-10.1564
▁हटा	-10.1564
एन	-10.1564
▁रोज़ी	-10.1565
▁नामक	-10.1567
▁प्रयुक्त	-10.1568
▁build	-10.157
शील	-10.1573
वालों	-10.1577
रों	-10.1584
▁importance	-10.1589
▁version	-10.1592
▁spiritual	-10.1595
▁विदेश	-10.1603
▁default	-10.1603
ेशन	-10.1607
▁March	-10.1608
▁agreement	-10.161
ize	-10.1615
▁पश्चिमी	-10.1617
▁गतिविधियों	-10.1617
▁व्यवसाय	-10.1621
▁महसूस	-10.1624
▁निगम	-10.163
▁भला	-10.163
▁Centre	-10.1632
▁2014	-10.1638
▁चुनाव	-10.164
▁Ha	-10.1643
▁लिखने	-10.1644
आयतों	-10.1648
▁ख़	-10.1649
▁oil	-10.165
▁मिलकर	-10.1652
▁हिसाब	-10.1654
▁grant	-10.1654
▁Project	-10.1654
▁v	-10.1656
▁collection	-10.1663
▁Pa	-10.1671
▁remove	-10.1674
▁patient	-10.1677
ेगा	-10.168
▁ancient	-10.1684
्ल	-10.1687
▁सत्र	-10.1691
▁गवाह	-10.1691
▁अनुप्रयोग	-10.1694
▁सबको	-10.1696
▁develop	-10.1696
▁popular	-10.1697
▁उम्मीद	-10.1707
शन	-10.171
▁नागरिक	-10.1716
▁नाटक	-10.1717
▁बावजूद	-10.1723
▁मतलब	-10.1728
▁पूर्ववर्ष	-10.1729
▁कर्मचारियों	-10.1729
▁Education	-10.1732
▁regard	-10.1742
लि	-10.1743
▁shown	-10.1744
ज़ा	-10.1745
ba	-10.1751
▁Scheme	-10.1752
ran	-10.1757
bar	-10.1769
▁object	-10.1779
▁सच	-10.1781
एम	-10.1787
▁placed	-10.1788
This	-10.1789
▁सकेगा	-10.1791
▁खुश	-10.1793
▁आसान	-10.1794
▁fall	-10.1795
▁खो	-10.1796
▁हद	-10.1798
▁खास	-10.1807
▁Failed	-10.1811
सब	-10.1812
▁rivers	-10.1825
▁बख्श	-10.1825
▁खाली	-10.1826
▁स्वागत	-10.1826
▁कार्ड	-10.1827
▁मोड	-10.1828
▁बुद्धि	-10.1828
▁2006	-10.1831
▁झूठ	-10.1831
▁setting	-10.1831
▁lies	-10.1832
तु	-10.1833
▁responsibility	-10.1834
▁दावा	-10.1837
▁vision	-10.1838
▁servants	-10.184
▁ग्रहण	-10.1841
▁4.	-10.1842
र्क	-10.1844
▁addition	-10.1846
▁Of	-10.1847
14	-10.1847
हीन	-10.1856
▁सरकश	-10.1857
▁परीक्षण	-10.1858
▁Hell	-10.1862
▁देकर	-10.1867
▁एफ	-10.1867
▁करनेवाले	-10.1867
▁वातावरण	-10.1871
▁heard	-10.1879
12	-10.1883
▁यंत्र	-10.1885
▁बन्द	-10.189
▁deep	-10.1892
▁ma	-10.1893
▁languages	-10.1895
▁हाथों	-10.1896
▁खड़ा	-10.1897
▁प्राप्ति	-10.1898
▁pass	-10.19
▁संकल्प	-10.1913
▁effective	-10.1918
do	-10.192
▁parents	-10.1925
तः	-10.1928
▁treatment	-10.1933
▁कारबार	-10.1935
▁सज़ा	-10.1936
▁legal	-10.1937
▁मुसलमानों	-10.194
▁existence	-10.1941
▁मिशन	-10.1946
▁तय	-10.195
ship	-10.1959
▁अनुवाद	-10.196
▁accounts	-10.1964
▁white	-10.1966
▁सदन	-10.1971
▁scale	-10.1975
रु	-10.1982
▁सिद्धांत	-10.1982
▁asset	-10.1994
▁eye	-10.1998
ca	-10.1999
▁black	-10.2001
▁existing	-10.2005
▁नियमित	-10.2009
mi	-10.2009
▁folk	-10.2018
गो	-10.202
ास	-10.2021
▁35	-10.2022
▁citizens	-10.2023
▁चलता	-10.2024
▁consider	-10.2034
▁understanding	-10.2042
▁quite	-10.2042
डा	-10.2047
▁View	-10.2049
▁सर्व	-10.205
▁बोझ	-10.2051
राज	-10.2055
्यु	-10.2056
▁thousand	-10.2058
▁export	-10.2059
▁rain	-10.2061
▁हाँ	-10.2062
▁Research	-10.2063
▁तिथि	-10.2066
▁gone	-10.2069
▁जि	-10.2073
▁hundred	-10.2074
▁झुठलाया	-10.2079
▁इबादत	-10.2079
▁concerning	-10.2088
▁आदर्श	-10.2089
▁खाने	-10.2093
▁certificate	-10.2097
▁Many	-10.2102
▁range	-10.211
▁जिनकी	-10.2111
▁प्रसन्नता	-10.2115
▁पेज	-10.2116
ho	-10.2117
▁takes	-10.212
▁agricultural	-10.2123
▁भरोसा	-10.2124
रण	-10.2124
▁ख़र्च	-10.2124
▁activity	-10.2134
▁शेयर	-10.2139
▁अभियान	-10.2148
▁ध	-10.2149
म्प	-10.215
oc	-10.2156
▁उत्तम	-10.2156
▁practice	-10.216
▁code	-10.2162
▁unit	-10.2164
▁तत्व	-10.2168
▁connection	-10.2169
▁direction	-10.217
▁powers	-10.2175
▁संपूर्ण	-10.2175
▁fixed	-10.2176
वाला	-10.2184
▁मात्र	-10.2188
▁claim	-10.2192
▁Sri	-10.2197
▁getting	-10.2198
▁added	-10.2199
▁रहें	-10.2199
▁दस्तावेज	-10.2208
▁presented	-10.2209
▁Evolution	-10.221
▁कार्रवाई	-10.221
▁पदार्थ	-10.2216
fi	-10.2216
▁खूब	-10.222
चा	-10.2228
ton	-10.2232
हार	-10.224
▁भय	-10.2241
▁भेजे	-10.2242
▁article	-10.2247
▁female	-10.2247
▁aware	-10.2257
▁इन्हें	-10.2257
ेट	-10.2258
▁शिव	-10.2261
▁round	-10.2262
ेड	-10.2264
▁खेती	-10.2266
▁fair	-10.2267
▁Can	-10.2267
ie	-10.2268
▁जीवित	-10.2274
ेंगे	-10.2278
ेल	-10.2281
▁employment	-10.2281
▁देव	-10.2283
▁bad	-10.2287
▁क्लिक	-10.2291
पूर्वक	-10.2299
▁गीत	-10.23
ill	-10.23
▁जोड़	-10.2301
▁War	-10.2302
▁charge	-10.2305
▁विद्युत	-10.2306
▁अंतर्राष्ट्रीय	-10.2314
▁अक्सर	-10.232
ीन	-10.2326
▁पंक्ति	-10.2329
▁जाएं	-10.2331
▁वा	-10.2332
ner	-10.2333
▁अवैध	-10.2336
▁बढ़कर	-10.2338
ari	-10.2339
▁सुख	-10.234
▁चलो	-10.2342
▁शुभकामनाएं	-10.2352
▁लगाने	-10.2353
▁usually	-10.2355
▁format	-10.2359
▁friend	-10.2361
▁ग्राम	-10.2363
▁स्त्री	-10.2368
▁basic	-10.2368
▁दीन	-10.2373
▁forgive	-10.2374
▁सहेजें	-10.2374
▁दायित्व	-10.2374
▁goes	-10.2383
▁disc	-10.2385
▁गा	-10.2388
▁समस्याओं	-10.2389
ग़	-10.2391
▁गणराज्य	-10.2392
▁learning	-10.2401
▁जनवरी	-10.2408
▁बाहरी	-10.241
दुनिया	-10.241
▁Are	-10.241
▁भलाई	-10.2411
▁बजे	-10.2411
▁अंश	-10.2412
▁dance	-10.2419
▁उपाय	-10.242
isation	-10.2422
Allah	-10.2426
▁वितरण	-10.2432
▁कितनी	-10.2432
▁wise	-10.2433
▁felt	-10.2435
▁आयुक्त	-10.2436
▁कीमत	-10.2436
▁job	-10.244
▁गैस	-10.244
¤	-10.244
▁plus	-10.244
▁knew	-10.244
▁running	-10.244
▁forces	-10.2442
ूर	-10.2444
▁speech	-10.2445
▁clean	-10.2453
कल	-10.2453
▁mentioned	-10.2458
AN	-10.2461
अलग	-10.2468
▁Why	-10.2468
▁eight	-10.2475
ph	-10.2477
ex	-10.2479
▁शुरुआत	-10.248
▁इत्यादि	-10.248
¤¿	-10.2488
▁सप्ताह	-10.2488
ोर	-10.2494
▁गंभीर	-10.2496
यन	-10.2497
▁बीज	-10.2501
▁गंगा	-10.2503
▁password	-10.2504
▁appeal	-10.2507
▁शख़्श	-10.2512
▁खाना	-10.2529
▁पुराने	-10.253
▁generation	-10.2532
▁Resurrection	-10.2537
▁deal	-10.2542
ंज	-10.2542
▁खिलाफ	-10.2544
▁मिलती	-10.2544
▁हजार	-10.2544
▁जून	-10.255
▁कार्यक्रमों	-10.2552
▁judge	-10.2553
▁डरते	-10.2553
▁कल्पना	-10.2553
▁Therefore	-10.2554
▁born	-10.2563
▁शिकायत	-10.2568
▁नेतृत्व	-10.2569
▁जुड़े	-10.257
▁2008	-10.2574
▁सवाल	-10.2579
ik	-10.2586
sha	-10.259
▁police	-10.2593
▁sight	-10.2594
▁content	-10.2594
▁काफ़िर	-10.2596
्क	-10.2597
▁animals	-10.2597
▁चरण	-10.2599
▁Quran	-10.2603
▁verses	-10.2603
▁houses	-10.2611
▁obey	-10.2621
▁कर्मचारी	-10.2626
▁मानक	-10.2627
शी	-10.2628
▁painful	-10.2629
▁शून्य	-10.263
▁डे	-10.2634
▁वेतन	-10.2635
▁US	-10.2638
ile	-10.2639
▁तट	-10.264
▁मान्यता	-10.264
▁carry	-10.2642
▁जायेगा	-10.2644
▁talk	-10.2644
▁2002	-10.2651
▁टन	-10.2651
क़यामत	-10.2653
▁parties	-10.2654
▁note	-10.2659
▁forgiveness	-10.2661
▁Today	-10.2661
▁step	-10.2663
▁शि	-10.2666
▁plants	-10.2667
ten	-10.2669
▁पत्नी	-10.267
▁drink	-10.2674
▁ज़ुल्म	-10.2675
▁medical	-10.2675
▁कितने	-10.2676
उस	-10.2676
▁बनाएँ	-10.2676
▁names	-10.2681
▁tried	-10.2682
▁परियोजनाओं	-10.2683
▁गुरु	-10.2683
▁खुले	-10.2683
▁opportunities	-10.2683
▁youth	-10.2686
कृत	-10.2687
्म	-10.2689
▁Folder	-10.2692
▁opinion	-10.2692
▁companies	-10.27
▁तौबा	-10.27
सि	-10.27
▁दूध	-10.27
▁ideas	-10.2702
▁learn	-10.2709
▁कल्याण	-10.2717
एल	-10.2722
दान	-10.2723
▁अंक	-10.2723
▁Create	-10.2725
▁wanted	-10.2725
▁कब	-10.2726
▁सूर्य	-10.2727
▁2001	-10.2728
▁produced	-10.2728
▁please	-10.2729
ct	-10.2736
▁option	-10.2737
que	-10.2737
▁तेज	-10.2741
▁जानी	-10.2743
▁Yet	-10.2746
pe	-10.2758
▁generally	-10.2761
▁अनुसरण	-10.2766
▁हिंदू	-10.2766
30	-10.2774
▁वेब	-10.2777
tal	-10.2778
▁मुसलमान	-10.2783
▁directory	-10.2784
▁नेता	-10.2799
▁destroyed	-10.281
▁आस्ति	-10.2815
▁traditional	-10.2815
▁Krishna	-10.2816
▁ख्याल	-10.2816
▁formed	-10.2817
▁प्रा	-10.2818
▁statement	-10.2824
▁ill	-10.2825
▁units	-10.2828
▁गु	-10.2829
▁करार	-10.2839
▁Search	-10.2842
फा	-10.2844
▁समाचार	-10.2847
com	-10.2849
▁1961-201	-10.2854
▁काव्य	-10.2855
▁struggle	-10.2866
▁निर्देशिका	-10.287
▁Other	-10.2875
▁कमांड	-10.2885
▁associated	-10.2885
IC	-10.2888
▁प्रारूप	-10.2891
▁प्रेरित	-10.2894
▁feet	-10.2895
▁Supreme	-10.2899
▁उसपर	-10.2902
▁ईमानदारों	-10.2904
▁मो	-10.2904
▁Under	-10.2908
▁measure	-10.2908
▁immediately	-10.2911
▁Explanation	-10.2916
htm	-10.2921
▁King	-10.2925
▁Bar	-10.2927
ram	-10.2929
▁wishes	-10.293
▁expenditure	-10.2933
▁regarding	-10.2936
▁संस्थाओं	-10.2938
▁anyone	-10.2942
▁पर्यटन	-10.2943
▁खुशी	-10.2947
ble	-10.2951
▁दंड	-10.2952
He	-10.2952
▁fully	-10.2954
▁Plan	-10.2954
▁पु	-10.2956
▁performance	-10.2959
ator	-10.2966
▁बनाते	-10.2971
▁स्वतंत्र	-10.2975
▁स्थल	-10.2977
▁बदलें	-10.2983
▁Raj	-10.2985
▁वादा	-10.2986
▁ऑ	-10.2989
▁निशानी	-10.2992
▁presence	-10.2992
▁software	-10.2992
by	-10.2996
देश	-10.2999
वां	-10.3001
min	-10.3004
way	-10.3007
▁प्रोत्साहन	-10.3009
▁सुबह	-10.3009
so	-10.3011
▁former	-10.3012
▁धीरे	-10.3016
▁severe	-10.3019
ga	-10.3024
▁पंचांग	-10.3026
detail	-10.303
लो	-10.3031
वन	-10.3032
▁Pre	-10.3036
▁laid	-10.3044
▁शीर्षक	-10.3045
▁proper	-10.3046
▁पहुंचा	-10.3051
▁पेट	-10.3052
▁तेरे	-10.3052
▁author	-10.3052
▁particularly	-10.3054
▁प्रार्थना	-10.306
▁जाय	-10.3063
▁limited	-10.3066
os	-10.3068
▁मद	-10.3069
▁poetry	-10.307
▁कराने	-10.3072
release	-10.3073
▁moon	-10.3073
▁ख़ास	-10.3073
▁revelations	-10.3086
▁active	-10.3088
▁relevant	-10.3094
▁contract	-10.3094
▁क्रम	-10.3109
▁Kashmir	-10.3111
▁प्रचार	-10.3113
▁इजरायल	-10.3113
▁कक्ष	-10.3114
भा	-10.3114
presidentofindia	-10.312
▁spend	-10.312
▁met	-10.312
▁साधन	-10.3124
▁छूट	-10.3127
▁beautiful	-10.3128
der	-10.3129
▁separate	-10.3129
▁चाल	-10.3131
▁en	-10.3137
▁मिटाएँ	-10.3138
▁Wise	-10.3141
▁continued	-10.3142
▁पाकिस्तान	-10.3144
▁अत्यधिक	-10.3146
▁ऐतिहासिक	-10.3146
▁Last	-10.3149
ible	-10.3151
▁डि	-10.3152
▁ग़रज़	-10.3153
▁विद्यार्थियों	-10.3154
भाव	-10.3159
▁draw	-10.3159
▁बातचीत	-10.3163
▁देखभाल	-10.3163
▁workers	-10.3166
▁पलट	-10.3168
▁लोकतंत्र	-10.3172
रत	-10.3175
▁गृह	-10.3178
▁पाए	-10.3184
▁रा	-10.3185
▁इकाई	-10.3189
▁अस्तित्व	-10.3191
▁URL	-10.3192
▁scientific	-10.3197
▁2013	-10.3201
www	-10.3202
▁मामला	-10.3203
▁manifest	-10.3204
▁अंतरण	-10.3205
नों	-10.3206
▁चीज	-10.3207
▁na	-10.3209
▁focus	-10.321
▁रेल	-10.321
▁IN	-10.3212
▁memory	-10.3215
▁दुआ	-10.3217
▁हराम	-10.3217
▁ध्वनि	-10.322
▁2012	-10.3222
▁banks	-10.3223
▁normal	-10.3226
▁stay	-10.3229
▁बो	-10.3229
▁होनी	-10.3231
▁संबंधों	-10.3237
ite	-10.324
चे	-10.3245
▁contribution	-10.3246
▁पट्टी	-10.3248
▁Truth	-10.3249
▁आनंद	-10.325
र्ड	-10.3252
ची	-10.3261
▁गुज़र	-10.3263
▁बुराई	-10.3263
▁male	-10.3267
▁supply	-10.3267
▁स्क्रीन	-10.3271
याँ	-10.3273
▁table	-10.3276
▁भगवान	-10.3283
▁cell	-10.3285
▁कौशल	-10.3287
▁systems	-10.3292
▁विजय	-10.3292
▁भाषण	-10.3293
ub	-10.3295
▁Pakistan	-10.3296
▁इं	-10.3298
▁आये	-10.33
▁industries	-10.3302
▁assistance	-10.3302
les	-10.3308
▁लाया	-10.3308
▁drive	-10.3313
▁अपराध	-10.3314
▁बुनियादी	-10.3323
▁समस्त	-10.3324
▁labour	-10.3326
▁शा	-10.3327
▁Governor	-10.3331
bi	-10.334
▁team	-10.3341
▁Only	-10.3342
▁granted	-10.3344
▁बदलाव	-10.3347
▁मह	-10.3349
▁mountains	-10.3351
▁अर्थात्	-10.3352
▁फ़ैसला	-10.3354
▁पूजा	-10.336
्ज	-10.3367
▁release	-10.3367
▁बैंकों	-10.3372
▁boy	-10.3373
▁mental	-10.3373
▁ON	-10.3374
▁नष्ट	-10.3376
▁लाइन	-10.3378
▁पुत्र	-10.338
▁America	-10.3388
ER	-10.3388
▁January	-10.3392
ay	-10.3395
▁निदेशक	-10.3397
▁मानो	-10.3398
▁Group	-10.3398
▁famous	-10.3398
▁final	-10.34
▁green	-10.3407
▁perhaps	-10.3407
▁इतने	-10.3407
ging	-10.3409
▁essential	-10.3409
▁accordance	-10.3416
▁(4)	-10.3417
▁नव	-10.3419
▁Provided	-10.3419
▁grow	-10.3419
▁मशीन	-10.3423
▁regular	-10.3427
ां	-10.3428
▁covered	-10.3429
▁गवाही	-10.3429
▁कहता	-10.3435
▁आयतें	-10.3437
▁गुप्त	-10.344
▁protect	-10.3441
▁Bo	-10.3447
▁प्रकाशन	-10.3449
ab	-10.345
▁बिक्री	-10.3453
▁serve	-10.3454
▁मूल्यांकन	-10.3461
▁बेटे	-10.3462
▁contains	-10.3467
▁एवोल्यूशन	-10.3469
▁media	-10.347
▁ago	-10.3476
र्न	-10.348
▁ठिकाना	-10.3487
▁offer	-10.3488
▁conduct	-10.3489
▁छिपा	-10.3492
▁सुंदर	-10.3493
▁includes	-10.3497
▁द्वार	-10.3499
▁Bharat	-10.3501
▁चारों	-10.3505
▁दोष	-10.3508
▁32	-10.3509
▁मौत	-10.3512
▁Will	-10.3512
▁उतार	-10.3521
▁सूक्ष्म	-10.3521
▁product	-10.3522
▁Calcutta	-10.3523
▁विषयों	-10.3523
▁Director	-10.3524
▁स्मृति	-10.3525
▁पहल	-10.3527
▁आतंकवाद	-10.3529
ft	-10.353
▁सीधा	-10.3533
ढ़	-10.3538
du	-10.3539
▁calendar	-10.354
ki	-10.3541
▁sufficient	-10.3545
▁ज़ालिम	-10.355
▁Which	-10.3551
▁session	-10.3551
न्त	-10.3558
▁choose	-10.3558
▁न्यूनतम	-10.3558
▁तु	-10.3562
▁north	-10.3566
▁promote	-10.3567
▁taste	-10.3568
▁आंतरिक	-10.3568
);	-10.3572
▁अनुकूल	-10.3573
▁successful	-10.3591
▁agriculture	-10.3594
ors	-10.3595
▁expression	-10.3595
▁anti	-10.3602
▁relationship	-10.3604
बू	-10.3606
▁consideration	-10.3614
▁Every	-10.3615
▁Mo	-10.3618
,"	-10.3619
▁administration	-10.3621
▁sons	-10.3622
▁centre	-10.3624
जि	-10.3628
िर	-10.3629
▁दु	-10.3629
▁पुकार	-10.363
▁नज़र	-10.363
▁mis	-10.3635
▁स्थानों	-10.3636
▁घरेलू	-10.3659
▁बनने	-10.3663
▁paper	-10.3668
▁st	-10.3668
▁आग्रह	-10.3668
▁inside	-10.367
▁Ko	-10.3672
▁perform	-10.3672
▁red	-10.3674
▁उम्र	-10.3676
▁Pharaoh	-10.3681
▁किसान	-10.3683
▁game	-10.3686
▁गुमराही	-10.3689
▁numbers	-10.3689
▁मंच	-10.3696
▁नोट	-10.3697
▁मज़ा	-10.3698
भाँति	-10.37
▁हिस्से	-10.3703
▁कथा	-10.3704
▁अद्यतन	-10.3712
▁milk	-10.3712
▁शाखा	-10.3713
िट	-10.3717
▁villages	-10.3718
▁measures	-10.3718
▁प्राण	-10.372
cc	-10.372
▁balance	-10.3721
▁Mumbai	-10.3721
▁journey	-10.3721
▁सामर्थ्य	-10.3722
▁जोखिम	-10.3722
▁प्रयोजन	-10.3722
em	-10.3723
▁travel	-10.3729
▁यथा	-10.374
ाने	-10.374
▁supported	-10.374
▁प्रायः	-10.3741
▁90	-10.3748
▁आपूर्ति	-10.3749
ांग	-10.3751
▁तथ्य	-10.3751
▁item	-10.3754
हो	-10.3756
▁Time	-10.3757
▁शरीक	-10.3758
▁permission	-10.3759
▁secret	-10.376
पाल	-10.3765
▁घ	-10.3765
▁जाएंगे	-10.3766
▁voice	-10.3767
▁cooperation	-10.3767
▁दूरी	-10.3768
स्थ	-10.3769
▁ज़रुर	-10.3769
▁limit	-10.3771
▁रास्ते	-10.3772
au	-10.3774
▁स्त्रियों	-10.3776
▁पारित	-10.3779
red	-10.3782
हालॉकि	-10.3785
ेन	-10.3787
▁highest	-10.3788
▁favour	-10.3789
मि	-10.3792
▁link	-10.3793
▁कोड	-10.3801
▁पूछा	-10.3803
▁Tamil	-10.3804
▁Message	-10.3805
▁waste	-10.3808
▁मां	-10.3812
▁सेवाएं	-10.3814
▁प्रतिक्रिया	-10.3814
▁मेहरबान	-10.3814
ven	-10.3818
▁डा	-10.3819
▁वाद्य	-10.382
मो	-10.3822
▁benefits	-10.3833
▁Shah	-10.3836
▁week	-10.384
▁ख़ूब	-10.384
▁विविध	-10.3842
वाले	-10.3842
र्ट	-10.3842
▁दूसरों	-10.3843
▁length	-10.3849
▁ज्ञापन	-10.3849
▁लगातार	-10.385
▁जल्द	-10.385
▁profit	-10.3851
▁वाद	-10.3854
▁स्	-10.3857
▁denied	-10.3859
▁आध्यात्मिक	-10.3859
▁थोड़ा	-10.3859
▁पुस्तिका	-10.3861
▁मानसिक	-10.3866
▁Va	-10.3866
▁largest	-10.3867
▁तरीका	-10.3868
▁unjust	-10.387
▁gods	-10.3876
▁middle	-10.3877
J	-10.3885
▁St	-10.3893
▁संसाधनों	-10.3895
ियो	-10.3895
एफ	-10.3895
ुर	-10.3896
▁गुजरात	-10.3898
▁looking	-10.3903
▁अभिप्रेत	-10.3905
▁200	-10.3906
▁आसानी	-10.391
pt	-10.3911
▁species	-10.3914
▁सहकारी	-10.3915
▁break	-10.3916
▁pleasure	-10.3924
▁chastisement	-10.3924
▁la	-10.3927
▁hours	-10.3932
▁multi	-10.3932
▁relation	-10.3938
ED	-10.3939
▁design	-10.394
▁Di	-10.3942
मत	-10.3949
▁twenty	-10.3952
▁नृत्य	-10.3953
In	-10.3955
▁2015	-10.3957
▁shape	-10.3961
▁south	-10.3961
▁मीडिया	-10.3961
▁effort	-10.3963
▁सिवाय	-10.3964
gi	-10.3964
our	-10.3964
्व	-10.3967
▁IT	-10.3967
▁road	-10.3968
▁mo	-10.3968
▁marriage	-10.397
▁दयावान	-10.3971
▁Mar	-10.3974
▁कार	-10.3981
▁construction	-10.3989
▁ठ	-10.3992
▁पढ़ने	-10.3994
▁quot	-10.3994
▁रास्ता	-10.3996
01	-10.3997
dy	-10.3998
▁opened	-10.3998
▁देखकर	-10.4006
▁अध्याय	-10.4008
▁महत्त्वपूर्ण	-10.4008
▁बोले	-10.4011
▁longer	-10.4011
▁नागरिकों	-10.4013
▁Right	-10.4021
▁रद्द	-10.4022
▁enemy	-10.4026
▁बु	-10.4027
कु	-10.4027
▁तभी	-10.4028
▁तुझे	-10.403
▁करीब	-10.4032
▁Start	-10.4036
▁cities	-10.4037
चर	-10.4038
गर	-10.4038
out	-10.4038
▁तार	-10.4039
▁assets	-10.4042
▁प्रतीत	-10.4045
▁entered	-10.4047
▁संचालन	-10.4047
स्क	-10.4051
▁American	-10.4052
▁percent	-10.4055
▁Management	-10.4055
▁Guru	-10.4058
▁Rama	-10.4061
▁extent	-10.4065
ster	-10.4066
▁influence	-10.4072
▁नौ	-10.4073
▁फैला	-10.4076
▁promised	-10.4078
▁सर्वोच्च	-10.4083
▁Forgiving	-10.4083
▁Lok	-10.4087
end	-10.4089
▁officers	-10.4092
▁Image	-10.4092
▁दयालुता	-10.4093
▁standard	-10.4096
▁else	-10.4102
▁directly	-10.4103
ard	-10.4103
▁attention	-10.4103
▁फिल्म	-10.4104
▁Thou	-10.4104
▁laws	-10.4109
It	-10.4109
▁Ar	-10.411
राम	-10.4111
शि	-10.4111
▁Children	-10.4112
▁ख़ुद	-10.4113
▁portion	-10.4115
▁town	-10.4115
▁sides	-10.4119
▁Chandra	-10.4122
▁Bill	-10.4125
▁bit	-10.4127
▁gain	-10.413
▁विफल	-10.4131
▁काट	-10.4135
▁blind	-10.4138
▁implementation	-10.414
▁saved	-10.4144
उन	-10.4148
▁Home	-10.4149
▁उद्घाटन	-10.4149
▁घोषित	-10.4151
▁changed	-10.4153
ाय	-10.4155
-19	-10.4156
म्ब	-10.416
▁AND	-10.4162
▁Well	-10.4162
▁civil	-10.4163
▁उतर	-10.4167
▁storage	-10.4168
▁पात्र	-10.4168
▁बाबत	-10.4169
▁Pro	-10.4172
▁CD	-10.4174
My	-10.4174
¤2	-10.4175
▁भागीदारी	-10.4176
▁establish	-10.4181
gg	-10.4185
▁Messengers	-10.4189
▁protection	-10.4189
▁faces	-10.419
▁5.	-10.4195
▁मुंबई	-10.4197
▁परिस्थितियों	-10.4197
नीय	-10.4198
▁फसल	-10.4206
▁भागों	-10.4206
▁उठाने	-10.4211
▁चेतना	-10.4211
▁अनुमान	-10.4214
▁कानूनी	-10.4218
▁विवाद	-10.422
▁विश्लेषण	-10.4227
▁Enable	-10.4228
नो	-10.4228
mb	-10.423
▁भौतिक	-10.423
▁steps	-10.4239
▁समाप्ति	-10.4248
▁feed	-10.4249
▁included	-10.4251
▁Tax	-10.4255
ping	-10.4257
▁सार	-10.4258
▁आयत	-10.426
war	-10.426
ंगे	-10.4263
▁२	-10.4264
▁गठन	-10.4264
day	-10.4267
▁सर्वाधिक	-10.4269
▁December	-10.4279
▁Sub	-10.4282
▁हिंदी	-10.429
▁mean	-10.4292
13	-10.4294
ix	-10.4294
▁;	-10.4295
▁वै	-10.4296
▁Islamic	-10.4298
▁ग़ालिब	-10.4303
▁ऑनलाइन	-10.4303
ple	-10.4307
▁h	-10.4307
▁रुपए	-10.4309
▁जड़	-10.4312
RE	-10.4314
mp	-10.4317
▁प्राथमिकता	-10.4318
▁System	-10.4318
▁cover	-10.4324
▁appropriate	-10.4324
▁played	-10.4325
▁प्रो	-10.4326
▁Delete	-10.433
▁दर्ज	-10.433
निक	-10.4336
▁someone	-10.4337
▁wait	-10.4353
▁nations	-10.4353
▁unique	-10.4361
▁परिणामस्वरूप	-10.4361
▁आवास	-10.4364
टो	-10.4367
50	-10.4368
था	-10.437
▁wind	-10.4374
chi	-10.4375
▁Abraham	-10.4376
▁माह	-10.4377
▁advice	-10.438
▁trial	-10.4383
▁doers	-10.4385
▁completed	-10.439
▁उपबंधों	-10.439
ped	-10.4398
▁किनारे	-10.44
▁तमाम	-10.44
▁minus	-10.44
▁देवी	-10.4403
▁देखता	-10.4406
▁उठाए	-10.4407
▁होंगी	-10.4407
▁उपयोक्ता	-10.441
▁violence	-10.4412
And	-10.4415
▁figure	-10.4418
त्	-10.442
▁enjoy	-10.4422
▁official	-10.4427
son	-10.4428
ions	-10.4433
▁लड़ाई	-10.4439
▁रीति	-10.444
bo	-10.444
▁divine	-10.4441
पो	-10.4442
▁फोन	-10.4443
▁Se	-10.4444
▁वर्षा	-10.4445
▁पढ़ा	-10.4446
▁response	-10.4448
▁जितना	-10.4448
▁sp	-10.4449
▁km	-10.4449
मेंट	-10.4458
▁domestic	-10.4458
▁secure	-10.4459
▁लेंगे	-10.4462
▁करा	-10.4465
▁connected	-10.4471
०	-10.4471
▁भाषाओं	-10.4472
▁छह	-10.4474
▁दोस्त	-10.4476
▁educational	-10.4484
▁Policy	-10.4488
▁wall	-10.4489
▁फैसला	-10.449
▁मुख	-10.449
▁निर्देश	-10.4492
▁stock	-10.4498
▁जाओगे	-10.4501
▁अधिकारों	-10.4505
ology	-10.4506
▁apart	-10.4507
▁नेहरू	-10.4507
▁पंजाब	-10.451
▁request	-10.4511
वर्ती	-10.4513
फ़ा	-10.4517
▁महामहिम	-10.4517
▁स्वतः	-10.4518
▁documents	-10.452
▁recent	-10.4522
▁leading	-10.4526
▁संबोधित	-10.4527
▁fish	-10.4529
▁ID	-10.4533
▁संकट	-10.4538
▁दस्तावेज़	-10.4539
▁types	-10.4544
▁achieve	-10.4546
▁मई	-10.4547
▁अनुरोध	-10.4547
▁डाटा	-10.4548
▁model	-10.455
▁skin	-10.4551
यदि	-10.4551
▁सरदार	-10.4554
▁115	-10.4556
▁growing	-10.4557
▁Move	-10.4558
we	-10.4558
ali	-10.4558
▁lay	-10.4559
▁According	-10.456
▁हु	-10.4562
▁लिंक	-10.4562
न्स	-10.4564
▁चलने	-10.4565
▁पति	-10.4565
20	-10.4566
▁Set	-10.457
▁operations	-10.4574
▁ho	-10.4575
▁परामर्श	-10.4577
▁ready	-10.4578
▁प्राथमिक	-10.458
भर	-10.4584
▁एंड	-10.4586
▁मोमिन	-10.4587
▁deduction	-10.4588
▁लोगो	-10.4588
▁लड़के	-10.4589
▁funds	-10.459
▁उपयोगी	-10.4594
▁̧à	-10.4597
▁अन्दर	-10.4597
▁सचिव	-10.4598
uk	-10.46
यो	-10.4605
▁rise	-10.4607
▁शुभ	-10.4607
▁deemed	-10.4619
▁June	-10.462
▁film	-10.4622
▁Nehru	-10.4626
▁सुझाव	-10.4627
▁बन्दगी	-10.4628
▁tradition	-10.4636
▁standing	-10.4638
▁allow	-10.4639
gen	-10.4641
▁विपरीत	-10.4646
▁अर	-10.4647
▁उद्यम	-10.465
▁attack	-10.4651
ib	-10.4652
▁site	-10.4653
ूँ	-10.4659
▁significant	-10.4659
If	-10.4659
र्म	-10.466
▁Gujarat	-10.466
नेवाला	-10.4661
पे	-10.4661
▁reject	-10.4662
▁बीमारी	-10.4662
▁एशिया	-10.4664
▁पसन्द	-10.4667
▁अदा	-10.4669
▁adopted	-10.4672
▁विद्यमान	-10.4676
▁stories	-10.4677
▁Account	-10.4677
ाया	-10.4686
▁sacrifice	-10.4686
▁आठ	-10.469
▁उदार	-10.4691
▁ज़ाहिर	-10.4697
▁distance	-10.4697
▁com	-10.4697
▁अगस्त	-10.4697
if	-10.4697
▁आक्रमण	-10.4698
▁otherwise	-10.4698
ल्स	-10.4702
▁आवाज़	-10.4708
लोगों	-10.471
▁Edit	-10.4711
▁सच्चा	-10.4714
▁employees	-10.4721
mer	-10.4723
▁democracy	-10.4727
▁प्रतीक्षा	-10.4727
▁मुझसे	-10.473
▁माबूद	-10.4733
नाम	-10.4733
▁स्प	-10.4737
▁मीटर	-10.4737
istic	-10.4739
द्द	-10.474
▁जिनको	-10.4741
▁items	-10.4746
▁Science	-10.4746
ल्ड	-10.4751
qui	-10.4751
▁moment	-10.4761
ash	-10.4764
▁समृद्ध	-10.4767
▁बजाय	-10.477
▁stated	-10.4774
▁fine	-10.4776
▁वहीं	-10.4777
▁sins	-10.478
▁weight	-10.4785
तक	-10.4787
▁technical	-10.4787
▁साबित	-10.4787
पति	-10.4788
िज	-10.4794
hal	-10.4797
▁raise	-10.4798
▁October	-10.4804
▁कूटशब्द	-10.4808
▁इन्कार	-10.4808
▁प्रशंसा	-10.482
▁Remove	-10.4828
डि	-10.4829
▁शुद्ध	-10.4829
िम	-10.483
▁maintain	-10.4837
▁useful	-10.4838
▁वैसे	-10.484
▁powerful	-10.4845
▁चीन	-10.4845
ability	-10.4847
▁Bi	-10.4851
▁करेगी	-10.4854
वल	-10.4856
ाम	-10.4857
▁एच	-10.4859
▁1999	-10.4859
▁त्याग	-10.4863
▁straight	-10.4869
▁प्रयत्न	-10.4869
न्ड	-10.4869
▁औलाद	-10.487
▁Pra	-10.487
▁En	-10.4874
द्ध	-10.4874
▁आओ	-10.4878
▁heavy	-10.4879
▁Western	-10.4879
cal	-10.488
▁listen	-10.4881
prh	-10.4882
▁honour	-10.4884
▁functions	-10.4888
▁Assembly	-10.4889
▁First	-10.489
▁mighty	-10.4895
qu	-10.4896
▁Here	-10.4896
▁उत्पादों	-10.4898
्ड	-10.4899
▁सर्वेक्षण	-10.4899
▁grace	-10.4905
▁विमान	-10.4906
▁schemes	-10.4909
▁exercise	-10.4911
▁ha	-10.4912
▁stop	-10.4914
▁यक़ीनी	-10.4919
▁square	-10.4921
▁serious	-10.4923
▁पढ़	-10.4925
IS	-10.4935
▁Africa	-10.4936
▁संवाद	-10.4936
▁डाले	-10.4937
▁external	-10.4941
▁Secretary	-10.4941
▁औरतों	-10.4942
▁shows	-10.4947
▁November	-10.4948
od	-10.4949
▁master	-10.495
▁समझौता	-10.4951
ified	-10.4957
ff	-10.4957
▁pure	-10.496
▁प्रतिनिधित्व	-10.4962
▁hour	-10.4962
▁located	-10.4962
What	-10.4962
▁exists	-10.4965
ens	-10.4968
▁पाई	-10.4969
▁Finance	-10.4971
▁screen	-10.4974
▁fruit	-10.4977
ीकृत	-10.4981
ING	-10.4981
▁पाते	-10.4983
▁तकनीक	-10.499
ke	-10.4993
▁मुक़ाबले	-10.4993
▁अर्थात	-10.4995
▁आख़िर	-10.4998
▁host	-10.4999
▁शिखर	-10.5003
▁सन्तान	-10.5003
ेज	-10.5009
▁जाकर	-10.501
19	-10.5012
▁कितना	-10.5013
▁अनुरूप	-10.5014
▁जमीन	-10.5015
ap	-10.5018
▁join	-10.5022
▁नूह	-10.5023
▁committed	-10.5024
▁gardens	-10.5028
▁पवित्र	-10.5032
▁named	-10.5036
▁Sha	-10.5038
▁विन्यास	-10.5039
▁चुने	-10.5041
▁प्राधिकारी	-10.5042
▁जनसंख्या	-10.5044
▁2003	-10.5044
▁लिखी	-10.5046
▁hearing	-10.5047
सु	-10.5049
▁दौड़	-10.5052
nu	-10.5061
▁अक्षम	-10.5062
▁net	-10.5065
For	-10.5067
▁involved	-10.5067
▁अज्ञात	-10.5067
▁declared	-10.507
▁उद्योगों	-10.5071
कभी	-10.5072
val	-10.5072
▁प्रेरणा	-10.5076
▁दशक	-10.5076
▁Programme	-10.5077
▁cash	-10.5078
▁PM	-10.5078
▁bound	-10.5078
▁टीम	-10.5079
▁prevent	-10.5083
▁registered	-10.5085
▁commercial	-10.5086
▁leader	-10.5086
▁imp	-10.5087
▁निर्वाचन	-10.5088
▁उच्चतम	-10.5088
▁Unto	-10.509
▁surface	-10.5096
▁results	-10.5097
▁औसत	-10.5097
gu	-10.51
▁staff	-10.5107
▁खान	-10.5109
▁thinking	-10.5113
▁कृष्ण	-10.5121
▁payable	-10.5123
ढ	-10.5124
▁काफ़ी	-10.5126
▁officer	-10.5127
▁सुभाष	-10.5128
▁हत्या	-10.5128
▁Google	-10.5129
▁partners	-10.5129
rd	-10.513
ाह	-10.5132
▁variety	-10.5138
▁पृथ्वी	-10.5138
▁अधिसूचना	-10.5138
▁रेखा	-10.514
▁व्या	-10.5141
Q	-10.5144
ng	-10.5148
vo	-10.5148
ेस	-10.5149
त्मक	-10.5155
▁2009	-10.5156
▁छात्रों	-10.5157
▁प्रोत्साहित	-10.5159
▁kill	-10.5161
▁September	-10.5164
▁सरकारों	-10.5165
▁पड़ी	-10.5169
ऱ	-10.517
▁कार्यान्वयन	-10.517
▁Text	-10.517
▁reference	-10.5173
▁लिखित	-10.5178
▁उपभोक्ता	-10.5178
▁Asia	-10.5178
▁events	-10.518
▁लोकप्रिय	-10.5183
▁खुली	-10.5183
युक्त	-10.5184
▁fathers	-10.5186
▁touch	-10.5187
Z	-10.5189
▁चीज़ों	-10.5191
▁Bombay	-10.5191
▁families	-10.5191
▁बुला	-10.5191
ung	-10.5193
▁developing	-10.5195
▁Ro	-10.5195
dar	-10.5196
▁Corporation	-10.5201
▁Exchange	-10.5201
▁appointment	-10.5204
▁परंपरा	-10.5209
ग्	-10.5214
▁केरल	-10.5217
▁Power	-10.5222
▁मिनट	-10.5223
▁निहित	-10.5223
▁independent	-10.5226
X	-10.5226
▁won	-10.5227
▁रस	-10.5227
▁बदलने	-10.5229
▁Satan	-10.523
▁अमेरिकी	-10.5234
▁Chairman	-10.5234
▁lines	-10.5235
▁ca	-10.5239
▁Per	-10.5241
▁नजर	-10.5244
▁अस	-10.5246
▁संगठनों	-10.5248
▁(1	-10.525
▁नबी	-10.5253
▁improve	-10.5254
विज्ञान	-10.5259
▁आरोप	-10.526
▁पहाड़	-10.5261
▁शिकार	-10.5263
ama	-10.5265
▁Khan	-10.5271
ंगी	-10.5272
▁असमर्थ	-10.5272
▁warm	-10.5274
▁चुनौती	-10.5275
▁राजनैतिक	-10.5275
▁शारीरिक	-10.5275
▁निर्	-10.5278
▁trees	-10.5279
▁विंड	-10.5282
▁evening	-10.5284
▁थ	-10.5287
▁नेक	-10.5287
▁mark	-10.5291
▁Maha	-10.5291
▁Conference	-10.5297
भारत	-10.5302
▁2004	-10.5304
▁messengers	-10.5306
▁पो	-10.5309
▁plain	-10.5316
▁connect	-10.5325
▁दाखिल	-10.5329
▁Path	-10.5329
▁Ga	-10.5334
▁हमसे	-10.5338
ष्ठ	-10.5344
▁ताकत	-10.5346
कुफ़्र	-10.5353
▁पूर्वी	-10.5354
▁Nay	-10.5355
▁SAW	-10.5361
▁रेलवे	-10.5363
▁नयी	-10.5365
▁destroy	-10.5369
▁लेख	-10.5371
ऊ	-10.5373
▁त्रि	-10.5376
▁divided	-10.5377
▁speed	-10.5378
▁II	-10.5379
".	-10.5381
▁इसको	-10.5381
You	-10.5381
▁कॉल	-10.5385
▁joint	-10.5388
▁Indians	-10.5392
▁समग्र	-10.5394
▁Address	-10.5397
ार्थ	-10.5398
▁processing	-10.5404
▁br	-10.5404
▁helped	-10.5406
▁lived	-10.5412
▁घंटे	-10.5415
▁कार्यवाही	-10.5416
▁forest	-10.5416
▁एकता	-10.5419
▁husband	-10.542
▁2020	-10.5421
▁स्तंभ	-10.5423
▁फूल	-10.5424
▁लाते	-10.5425
▁देर	-10.5426
सार	-10.5427
अज़ाब	-10.5428
▁engaged	-10.5429
▁श्रम	-10.5429
▁Punjab	-10.543
योग	-10.5433
▁रू	-10.5434
▁earned	-10.5434
▁Le	-10.5435
▁Import	-10.5435
▁foundation	-10.5436
▁consciousness	-10.5437
uc	-10.5438
av	-10.5438
▁जिले	-10.5441
▁reading	-10.5442
▁academic	-10.5447
▁समर्पित	-10.5447
▁track	-10.5448
▁Ex	-10.5453
▁उठाया	-10.5453
▁praise	-10.5454
▁expressed	-10.5455
▁entry	-10.5458
▁साफ़	-10.5459
▁San	-10.546
▁जैव	-10.5461
▁increasing	-10.5462
▁fruits	-10.5468
▁मुद्दों	-10.5469
▁परिवर्तित	-10.5469
▁rejected	-10.5473
▁additional	-10.5473
▁leaves	-10.5479
▁ज़िन्दगी	-10.5481
▁opening	-10.5484
▁सृजन	-10.549
▁जिनसे	-10.5492
▁अदालत	-10.5502
▁partnership	-10.5502
▁temples	-10.5508
▁Har	-10.551
▁बर	-10.5511
▁शैक्षिक	-10.5512
▁select	-10.5515
▁policies	-10.5523
▁Kerala	-10.5523
han	-10.5529
17	-10.5529
▁China	-10.5531
▁amongst	-10.5533
IN	-10.5534
ुआ	-10.5536
▁बिहार	-10.5541
▁टूट	-10.5543
▁आसपास	-10.5545
▁location	-10.5546
▁गणना	-10.5548
▁Po	-10.5551
▁प्रबंधक	-10.5554
र्ग	-10.5554
ward	-10.5556
▁छत	-10.5557
▁gas	-10.5559
▁August	-10.5561
▁लक्षण	-10.5563
▁animal	-10.5564
▁undertaking	-10.5567
▁मुलाकात	-10.5567
▁desires	-10.5574
ual	-10.5575
▁Nath	-10.5578
▁कनेक्शन	-10.5578
▁average	-10.5578
▁श्रृंखला	-10.5579
▁guard	-10.558
▁Out	-10.5584
▁सुविधाओं	-10.5584
▁सहज	-10.5585
▁मैदान	-10.5586
▁shares	-10.5586
▁पहुँचे	-10.5587
▁असम	-10.5588
▁आना	-10.5592
16	-10.5593
▁बै	-10.5595
▁पेंशन	-10.56
▁{0}	-10.5602
▁Paradise	-10.5603
▁चर	-10.5603
मार	-10.5604
▁पंजीकरण	-10.5611
▁१	-10.5613
▁correct	-10.5618
▁बटन	-10.5622
▁डाउनलोड	-10.5622
▁Free	-10.5624
▁killed	-10.5625
].	-10.5627
▁standards	-10.5629
▁truly	-10.5633
▁आकर	-10.5635
▁फिरऔन	-10.5636
▁मल	-10.5643
tri	-10.5644
ाइड	-10.5646
▁cells	-10.5648
▁एकल	-10.5651
चार	-10.5653
▁रहमत	-10.5654
ika	-10.5654
▁1956	-10.5655
▁कहाँ	-10.5656
▁soil	-10.5659
▁advance	-10.566
▁Office	-10.5661
दन	-10.5662
ज्ञ	-10.5662
▁Any	-10.5664
25	-10.5666
शक्ति	-10.5667
▁मुक़र्रर	-10.567
▁web	-10.5671
▁Enter	-10.5673
▁fields	-10.5673
▁क़ुरान	-10.5674
▁Ca	-10.5676
▁enable	-10.5677
▁interests	-10.5678
▁Also	-10.5678
▁भार	-10.5681
▁ट	-10.5684
▁राजस्थान	-10.5689
ियर	-10.5691
▁root	-10.5692
nath	-10.5695
▁ईमानदार	-10.5699
▁उपन्यास	-10.5708
▁appear	-10.5708
▁निगरानी	-10.5711
▁मुश्किल	-10.5711
▁45	-10.5711
▁पुस्तकालय	-10.5711
lic	-10.5711
▁अनुपात	-10.5711
▁परिवहन	-10.5712
▁बढ	-10.5712
▁exist	-10.572
▁जेल	-10.5722
▁causes	-10.5725
ice	-10.5727
▁विरोधी	-10.5728
tro	-10.5731
▁military	-10.5733
▁इंटरनेट	-10.5733
▁contained	-10.5734
▁करोगे	-10.5735
ure	-10.5736
¤®	-10.5744
▁उक्त	-10.5744
▁मिसाल	-10.5744
▁Gandhiji	-10.5745
▁सॉफ्टवेयर	-10.5745
▁सभ्यता	-10.5747
कुछ	-10.5748
▁Fund	-10.5754
▁घड़ी	-10.5756
▁अकबर	-10.5757
with	-10.5759
▁मैने	-10.5763
▁needed	-10.5764
▁mass	-10.5764
▁mention	-10.5765
▁associate	-10.5769
Muhammad	-10.577
▁जादू	-10.577
▁sort	-10.5774
▁complex	-10.5776
ably	-10.5776
▁कलकत्ता	-10.5778
▁युक्त	-10.5782
▁प्रारंभिक	-10.5784
▁आवाज	-10.5787
▁खुला	-10.5789
cu	-10.579
sion	-10.5804
ोप	-10.5804
▁circumstances	-10.5805
▁पेड़	-10.5806
▁विधेयक	-10.5807
▁वचन	-10.5811
set	-10.5813
▁likely	-10.5815
▁“”	-10.5815
▁हवाई	-10.5816
ach	-10.5817
▁dated	-10.5817
▁card	-10.5821
▁अभिव्यक्ति	-10.5826
▁Knowing	-10.5829
ष्ट	-10.5831
ेश	-10.5837
▁तलाश	-10.5845
▁इनका	-10.5847
▁माँग	-10.5848
▁कदापि	-10.5856
▁जुलाई	-10.5857
स्प	-10.5858
▁remained	-10.5859
esh	-10.586
▁यूरोप	-10.5865
▁चु	-10.5865
▁दरमियान	-10.5867
▁remains	-10.5869
पूर्व	-10.587
▁questions	-10.587
▁Bihar	-10.5871
▁levels	-10.5873
▁u	-10.5881
ai	-10.5883
tan	-10.5886
Do	-10.5889
▁प्रतिभा	-10.5889
▁नेताओं	-10.5891
▁धारण	-10.5893
▁Q	-10.5893
▁forget	-10.5893
▁Ja	-10.5895
र्ज	-10.5895
▁हैंः	-10.5898
▁organization	-10.5899
IT	-10.5901
▁cattle	-10.5902
▁Mission	-10.5902
▁poems	-10.5903
▁शहरी	-10.5904
▁क्षमाशील	-10.5904
▁मस्तिष्क	-10.5905
दो	-10.5907
▁2017	-10.5913
▁medium	-10.5913
▁refers	-10.5914
द्	-10.5915
▁भेजें	-10.5915
▁शहरों	-10.5919
▁Dis	-10.5919
▁लगते	-10.5919
▁दया	-10.5922
▁School	-10.5924
▁ज्ञात	-10.5925
ाक	-10.5929
▁पूज्य	-10.5934
nt	-10.5935
▁मिलेगा	-10.5939
िय	-10.5946
ala	-10.5949
ani	-10.595
▁रौशन	-10.5951
▁burden	-10.5951
ara	-10.5953
▁sometimes	-10.5958
▁wives	-10.5958
▁राज्यपाल	-10.5959
ron	-10.596
ber	-10.5962
▁रोकने	-10.5966
▁कश्मीर	-10.5966
▁chief	-10.5968
▁distribution	-10.597
्न	-10.5977
▁elements	-10.5977
▁Air	-10.5981
▁अचानक	-10.5981
▁प्राधिकरण	-10.5981
▁gold	-10.5982
▁Had	-10.5987
▁Post	-10.5988
जू	-10.5988
▁तथापि	-10.5991
▁समीक्षा	-10.5992
▁जरिए	-10.5993
▁taught	-10.5993
▁चक्र	-10.5994
▁टा	-10.6001
▁Uttar	-10.6004
▁संदेह	-10.6004
ोन	-10.6006
ious	-10.6009
▁सौर	-10.6011
▁शुक्र	-10.6018
▁2016	-10.6021
▁व्याख्या	-10.6021
▁Ch	-10.6024
▁अगला	-10.6027
▁सजदा	-10.6034
▁शोध	-10.6035
▁July	-10.6035
▁6.	-10.6036
▁chosen	-10.604
▁proud	-10.604
▁विभाजन	-10.6041
▁false	-10.6042
▁75	-10.6047
▁चुन	-10.6051
▁sectors	-10.6052
चि	-10.6053
▁स्कीम	-10.6053
▁नंबर	-10.6056
▁avoid	-10.6058
▁सतह	-10.6059
ju	-10.606
▁दिनांक	-10.606
वास	-10.606
▁District	-10.6061
▁Tagore	-10.6061
▁hide	-10.6063
ेश्वर	-10.6064
▁literary	-10.6073
▁मोबाइल	-10.6075
ाए	-10.6082
▁pray	-10.6082
क़ियामत	-10.6084
▁मूल्यों	-10.6084
▁मकान	-10.6085
▁extended	-10.6086
▁Description	-10.6086
AR	-10.6087
▁knowing	-10.6089
▁वैध	-10.6093
▁button	-10.6096
▁पारंपरिक	-10.6097
▁पुष्टि	-10.6098
िनी	-10.6099
शास्त्र	-10.6099
▁seems	-10.6101
▁Ne	-10.6104
▁स्थिर	-10.6105
घर	-10.6106
▁संलग्न	-10.6107
दु	-10.6111
ps	-10.6112
ES	-10.6115
ath	-10.6119
▁risk	-10.6119
▁remote	-10.6119
▁उधार	-10.6121
den	-10.6126
▁सारा	-10.6127
▁कुफ्फ़ार	-10.6128
▁moral	-10.613
▁लंबे	-10.6131
▁star	-10.6133
aà	-10.6135
▁महात्मा	-10.6142
▁नक़ल	-10.6142
io	-10.6143
▁objective	-10.6144
▁lack	-10.6146
▁mutual	-10.6147
▁पै	-10.6151
▁शाह	-10.6153
▁destination	-10.6154
▁department	-10.6154
▁foot	-10.6157
▁500	-10.6158
▁अन्यथा	-10.6159
ाद	-10.6161
▁गाय	-10.6162
▁context	-10.6166
स्व	-10.6168
ava	-10.6169
▁majority	-10.617
000	-10.6176
▁empty	-10.6177
▁email	-10.6178
▁ja	-10.6178
्‍य	-10.6184
▁whosoever	-10.6188
▁Maharashtra	-10.6189
▁नवान्वेषण	-10.619
▁बौद्ध	-10.6193
▁crops	-10.6195
▁ज़्यादा	-10.62
ze	-10.6201
▁difference	-10.6201
▁अफ्रीका	-10.6202
▁pain	-10.6207
▁मूर्ति	-10.6211
▁ship	-10.6213
ler	-10.6214
▁larger	-10.6216
▁महाराष्ट्र	-10.6217
▁चिंता	-10.6221
▁association	-10.6225
▁partner	-10.6227
▁suffer	-10.6228
dic	-10.6232
▁vast	-10.6235
▁pressure	-10.6237
▁कम्पनी	-10.6237
▁वृक्ष	-10.6238
▁Mu	-10.6239
▁Type	-10.6239
▁स्वच्छ	-10.6246
▁इकट्ठा	-10.6247
▁फरवरी	-10.6247
▁बिलकुल	-10.6248
▁कॉ	-10.6249
▁अत्याचार	-10.6252
▁घाटे	-10.6253
▁साथी	-10.6259
▁Mahatma	-10.6259
▁teachers	-10.6261
1.	-10.6262
▁European	-10.6263
▁ra	-10.6263
▁transport	-10.6269
▁independence	-10.6271
▁maximum	-10.6271
▁procedure	-10.6272
▁निष्क्रिय	-10.6273
▁नेअमत	-10.6274
▁फेंक	-10.6274
▁Because	-10.6282
▁hidden	-10.6282
जब	-10.6286
▁worked	-10.6286
▁चलाने	-10.6287
▁board	-10.6294
▁2011	-10.6295
▁अनुदान	-10.6295
▁described	-10.6298
▁तीव्र	-10.6301
▁विश्वविद्यालयों	-10.6302
▁योजनाओं	-10.6303
▁2,	-10.6304
▁साझा	-10.6307
▁प्रतिनिधि	-10.6307
रिया	-10.6308
▁चालू	-10.6308
▁Sir	-10.631
las	-10.6311
▁चैनल	-10.6313
▁तोड़	-10.6314
▁trying	-10.6316
▁बच	-10.6316
▁valid	-10.6316
▁नुकसान	-10.6318
▁Rajasthan	-10.6319
▁organisation	-10.6319
ोल	-10.6321
▁observed	-10.6324
▁गोल	-10.6329
▁प्रिय	-10.6329
▁पृष्ठभूमि	-10.633
▁Bha	-10.6336
▁आस	-10.6338
▁ग्राहक	-10.6339
▁संपादक	-10.6342
▁sale	-10.6343
▁messenger	-10.6343
▁छा	-10.6343
▁dust	-10.6345
▁cr	-10.6348
▁दीवार	-10.635
▁images	-10.6355
▁establishment	-10.6359
वत	-10.6361
▁looked	-10.6362
▁River	-10.6365
▁terrorism	-10.6366
▁machine	-10.6366
▁नाथ	-10.6366
▁expected	-10.6367
▁शाम	-10.6373
▁unity	-10.6374
▁Its	-10.6375
▁wisdom	-10.6377
▁मॉडल	-10.6377
▁target	-10.6379
▁दुखद	-10.6379
▁series	-10.638
▁glad	-10.6385
▁शत्रु	-10.6385
मर	-10.6388
▁instance	-10.6389
▁ईमेल	-10.639
▁हार	-10.6392
▁महल	-10.6393
▁output	-10.6393
▁कान	-10.6394
▁इनकी	-10.6396
▁al	-10.64
ned	-10.64
▁description	-10.6401
▁अस्पताल	-10.6401
▁दि	-10.6401
▁died	-10.6406
रिक	-10.641
▁आरम्भ	-10.6411
▁भंडारण	-10.6414
▁reflect	-10.6416
▁Division	-10.6425
▁पुरानी	-10.6426
▁तल	-10.6429
▁कमजोर	-10.643
▁संसदीय	-10.6431
▁Though	-10.6438
▁dream	-10.6439
▁समर्थित	-10.6439
क्ति	-10.6441
▁Hindus	-10.6444
AT	-10.6449
▁introduced	-10.6451
▁अगल	-10.6453
▁कामना	-10.6456
▁deposit	-10.6458
▁universal	-10.6461
▁भेंट	-10.6461
pro	-10.6463
▁annual	-10.6465
▁साम्राज्य	-10.6465
▁station	-10.6466
▁contain	-10.6471
▁convey	-10.6471
▁ourselves	-10.6473
ुक	-10.6473
tin	-10.6473
▁नहरें	-10.6474
िता	-10.6477
▁देखे	-10.6478
▁Ganga	-10.6484
▁hell	-10.6485
▁संविदा	-10.6486
▁कराया	-10.6488
▁घटनाओं	-10.6491
▁जोड़ने	-10.6492
▁70	-10.6494
▁̈à	-10.6497
▁कंपनियों	-10.6497
▁ढांचे	-10.6497
▁सुदृढ़	-10.6497
▁friendly	-10.6499
▁प्रबंध	-10.6503
▁launched	-10.6506
mit	-10.6506
▁po	-10.6508
▁tidings	-10.6509
▁strike	-10.6509
▁fresh	-10.6509
▁Nepal	-10.6509
▁vi	-10.6512
▁सम्	-10.6517
▁सड़क	-10.6519
▁abroad	-10.6521
▁deliver	-10.6521
▁दुख	-10.6524
▁truthful	-10.6525
",	-10.6529
“”	-10.653
▁moving	-10.6533
ification	-10.6538
▁लेखन	-10.6543
▁army	-10.6547
▁कुमार	-10.6549
धा	-10.6549
▁दिखाता	-10.6549
▁1947	-10.6551
▁धैर्य	-10.6557
▁submit	-10.6557
लैंड	-10.656
▁दबाव	-10.6561
tor	-10.6564
▁आनन्द	-10.6569
▁अनक़रीब	-10.6569
▁purchase	-10.6572
▁reduce	-10.6572
▁assigned	-10.6573
▁अंतर्	-10.6574
▁विशेषकर	-10.6579
▁पशु	-10.658
▁goal	-10.6581
▁फ़ॉन्ट	-10.6581
▁तत्वदर्शी	-10.6581
▁phase	-10.6584
▁match	-10.6585
▁बारगाह	-10.6585
▁देखना	-10.6588
mar	-10.6588
▁सब्र	-10.6593
▁affairs	-10.6593
दे	-10.6594
▁युक्ति	-10.6594
▁इसने	-10.6595
▁Up	-10.6595
▁determined	-10.6598
▁आमतौर	-10.6606
▁खराब	-10.6607
aka	-10.6607
▁सबके	-10.6608
ier	-10.6611
▁rupees	-10.6613
▁positive	-10.6618
▁spent	-10.6619
▁homes	-10.662
▁brings	-10.6625
▁Akbar	-10.663
▁अनुग्रह	-10.663
हित	-10.6632
▁प्रशासनिक	-10.6634
▁शक्तियों	-10.6636
▁मास	-10.6636
▁import	-10.6637
▁expect	-10.6639
१	-10.6639
▁fill	-10.6641
▁promotion	-10.6642
▁लकड़ी	-10.6642
ning	-10.6644
▁स्वा	-10.6653
▁चीनी	-10.6653
▁आकर्षित	-10.6654
▁चूंकि	-10.6654
▁सांसारिक	-10.6654
▁बस्ती	-10.6655
ep	-10.6656
▁title	-10.6658
वासी	-10.6658
्वा	-10.6662
▁brothers	-10.6664
15	-10.6666
▁yield	-10.6666
▁विनिमय	-10.6669
▁निवास	-10.667
▁बिंदु	-10.6671
▁उत्तरी	-10.6675
▁phone	-10.6675
▁लड़	-10.6677
तंत्र	-10.6677
▁novel	-10.6678
▁Over	-10.6681
▁समझने	-10.6683
▁calls	-10.6684
▁Did	-10.6686
▁Services	-10.6694
fe	-10.6694
▁impact	-10.6695
ug	-10.6696
▁late	-10.67
▁reveal	-10.6702
▁नियंत्रित	-10.6703
▁removed	-10.6706
▁aid	-10.671
▁दा	-10.671
▁defined	-10.6712
▁प्रावधान	-10.6714
▁History	-10.6717
▁bill	-10.6723
▁अल्प	-10.6724
▁Change	-10.6726
▁covenant	-10.6728
▁resolution	-10.6728
▁अपेक्षित	-10.6728
▁load	-10.673
▁Special	-10.673
▁ball	-10.6731
use	-10.6732
▁सुनने	-10.6732
▁innovation	-10.6733
▁belief	-10.6734
▁खोलने	-10.674
▁easily	-10.674
▁जलवायु	-10.674
bha	-10.6744
▁जानने	-10.6748
▁clearly	-10.675
▁holding	-10.6752
▁seed	-10.6755
▁अनुसूचि	-10.6756
▁pattern	-10.6757
cha	-10.6758
Our	-10.6759
▁कम्प	-10.6763
▁beauty	-10.6765
▁परमाणु	-10.6765
▁vital	-10.6765
▁throughout	-10.6769
▁बढ़ती	-10.6773
▁disbelieved	-10.6775
▁Certificate	-10.6777
▁confidence	-10.6777
▁Da	-10.6778
ists	-10.6778
▁nine	-10.678
▁$	-10.6781
माल	-10.6789
▁मिलेगी	-10.6792
▁petitioner	-10.6793
▁offered	-10.6797
▁birds	-10.6798
ानी	-10.6799
▁gains	-10.68
▁विरासत	-10.6802
▁Great	-10.6802
▁initiatives	-10.6804
▁न्यू	-10.6804
▁crop	-10.6808
▁commit	-10.6809
00	-10.6813
▁poverty	-10.6814
¥	-10.6814
धर्म	-10.6815
मेल	-10.6819
tar	-10.6823
▁namely	-10.6823
▁व्यावसायिक	-10.6827
▁delivered	-10.6829
act	-10.683
▁charges	-10.683
▁उपस्थिति	-10.6831
▁challenges	-10.6834
▁greatest	-10.6835
▁थोड़े	-10.6839
▁bed	-10.6841
form	-10.6842
▁gets	-10.6843
▁हटकर	-10.6843
▁एकमात्र	-10.6846
▁सदा	-10.6846
▁extend	-10.6851
▁primary	-10.6852
▁Among	-10.6852
▁safety	-10.6852
▁Each	-10.6853
▁ईमानवालों	-10.6856
ल्ल	-10.6858
▁views	-10.686
▁कड़ी	-10.6862
▁मारे	-10.6866
▁characters	-10.6867
▁songs	-10.6868
▁award	-10.6869
▁February	-10.6869
▁Color	-10.6869
▁communication	-10.687
▁walk	-10.687
ज्	-10.6873
▁खड़ी	-10.6882
▁टैब	-10.6882
▁press	-10.6884
▁Qur	-10.6886
▁drop	-10.6889
ess	-10.6889
from	-10.6891
▁seeking	-10.69
▁studies	-10.6902
▁सिविल	-10.6902
▁उत्कृष्ट	-10.6907
नु	-10.6914
itis	-10.6914
▁sought	-10.6916
क्रम	-10.6919
▁block	-10.6922
cr	-10.6926
▁applications	-10.6928
▁दोबारा	-10.6931
कुल	-10.6933
▁garden	-10.6933
▁cross	-10.6935
▁reply	-10.6939
▁ज़िन्दा	-10.6942
ताओं	-10.6943
▁न्यास	-10.6947
▁Both	-10.6948
▁Besides	-10.6952
कम	-10.6953
▁safe	-10.6953
▁उद्	-10.6955
▁बोस	-10.6955
▁origin	-10.6957
▁बुद्ध	-10.6959
िये	-10.6959
राज्य	-10.696
▁होम	-10.696
▁Europe	-10.6962
▁warn	-10.6968
▁ka	-10.6969
▁वर्ण	-10.6976
▁Scripture	-10.6977
▁अन्ततः	-10.6977
नेवाले	-10.698
▁मुझ	-10.6982
her	-10.6984
res	-10.6989
▁सकेंगे	-10.6989
▁अवतरित	-10.699
▁चली	-10.6994
च्छ	-10.6996
▁सागर	-10.6998
▁points	-10.7002
cl	-10.7005
▁Hour	-10.7006
▁dry	-10.701
▁7.	-10.701
▁Ki	-10.7012
▁भेजने	-10.7012
▁कुरान	-10.7014
▁philosophy	-10.7015
▁चेतावनी	-10.7015
▁मिलियन	-10.7017
▁बाह्य	-10.7019
▁dispute	-10.702
▁प्रभुत्वशाली	-10.7028
▁aim	-10.7028
▁hair	-10.7029
▁lest	-10.7031
▁अभाव	-10.7033
▁किस्म	-10.7033
▁kinds	-10.7034
▁मध्यम	-10.7035
ration	-10.7036
▁reduced	-10.7037
▁Ho	-10.7037
▁creating	-10.7041
▁Bengali	-10.7042
▁season	-10.7042
▁Data	-10.7048
▁लेन	-10.7049
▁forbidden	-10.7053
धर	-10.7055
▁branch	-10.7063
unt	-10.7065
▁welfare	-10.7066
▁Nor	-10.7066
▁घटक	-10.7072
सो	-10.7076
▁heat	-10.7076
द्र	-10.7078
▁minimum	-10.7078
▁पूछ	-10.708
▁क़िस्म	-10.7081
▁बाकी	-10.7084
्रा	-10.7088
▁mainly	-10.7091
▁थोड़ी	-10.7091
▁Ke	-10.7092
▁decide	-10.7097
लों	-10.7103
▁परिचय	-10.7104
▁सर्वोत्तम	-10.7104
▁इल्म	-10.7105
▁मुसीबत	-10.7108
▁Raja	-10.7113
▁उत्साह	-10.7113
▁Water	-10.7117
▁minister	-10.7125
▁मिटा	-10.7127
▁probably	-10.713
▁दाख़िल	-10.713
२	-10.7139
▁wherein	-10.7139
▁Assam	-10.7142
▁campaign	-10.7142
▁battle	-10.7143
▁लिखे	-10.7144
ev	-10.7144
▁01	-10.7149
▁pa	-10.715
▁मिलते	-10.7158
▁east	-10.7158
▁Work	-10.7159
▁Kan	-10.7161
▁di	-10.7161
▁dear	-10.7162
▁affected	-10.7164
▁नेकी	-10.7166
pp	-10.7166
▁souls	-10.7167
▁सम्पूर्ण	-10.7169
▁suffering	-10.7175
za	-10.7176
ick	-10.7176
▁सराहना	-10.7181
▁मना	-10.7183
▁यूनिट	-10.7188
▁Copy	-10.7189
▁शर्तों	-10.7189
▁संपादित	-10.7194
▁happened	-10.7194
tr	-10.7194
▁पाँच	-10.7194
▁मस्जिद	-10.7196
ेंट	-10.7206
▁believing	-10.7207
▁जिम्मेदारी	-10.7209
▁जन्नत	-10.7211
▁actual	-10.7213
▁ढ	-10.7214
▁आहार	-10.7215
▁girl	-10.7216
▁बैठ	-10.7218
▁machinery	-10.7221
दि	-10.7226
▁internal	-10.7228
▁acts	-10.7228
ek	-10.7229
▁गांवों	-10.7231
▁Financial	-10.7233
▁राजधानी	-10.7233
▁चरित्र	-10.7233
▁कही	-10.7235
▁approved	-10.7235
लिंग	-10.7235
▁री	-10.7237
ey	-10.724
ham	-10.7245
pl	-10.7248
▁युवाओं	-10.7251
मिल	-10.7251
▁resource	-10.7255
▁warner	-10.7257
▁रोगी	-10.7258
▁तुरंत	-10.7259
sp	-10.7259
▁संबद्ध	-10.7261
र्थ	-10.7263
▁urban	-10.7265
▁ideal	-10.7265
▁सफेद	-10.7272
स्टर	-10.7272
▁प्रसार	-10.7276
▁online	-10.7279
▁गुमराह	-10.7284
▁door	-10.7285
▁स्वस्थ	-10.7289
▁completely	-10.7291
▁examination	-10.7298
▁तयशुदा	-10.7298
▁द्वि	-10.7298
▁चढ़	-10.73
▁वस्त्र	-10.73
▁”-	-10.7302
▁va	-10.7304
▁समुद्री	-10.7306
▁avail	-10.7308
▁संयंत्र	-10.7311
▁huge	-10.7311
▁तेरी	-10.7312
▁regional	-10.7315
24	-10.7317
▁seem	-10.7318
▁Ya	-10.7319
लू	-10.732
▁festival	-10.7321
याद	-10.7321
हन	-10.7323
▁excellent	-10.7324
▁समझौते	-10.7324
▁लंबी	-10.7324
▁संग्रहालय	-10.7324
▁संध्या	-10.7324
▁follows	-10.7326
row	-10.7327
▁height	-10.7328
▁rec	-10.7331
var	-10.7331
लन	-10.7332
▁उपक्रम	-10.7342
▁परिसर	-10.7346
clause	-10.7346
▁अर्ध	-10.7346
▁चुना	-10.7346
▁degree	-10.7347
▁न्यायाधीश	-10.735
▁विभाजित	-10.735
▁kingdom	-10.735
▁तर	-10.735
▁ऑडियो	-10.7353
▁installed	-10.7359
lam	-10.7362
▁daily	-10.7363
▁विनष्ट	-10.7365
▁strengthen	-10.7365
▁pleased	-10.7365
▁विशेषता	-10.7366
▁डरो	-10.7368
▁`	-10.7372
▁intellectual	-10.7376
▁इंच	-10.7376
▁मोदी	-10.7377
▁दिखाने	-10.7379
▁रहेगी	-10.7382
▁Sam	-10.7383
▁वर्गों	-10.7383
▁गरीब	-10.7384
कार्य	-10.7388
▁weak	-10.739
निया	-10.7395
▁ठहरा	-10.7395
ेर	-10.7396
▁कीट	-10.7399
▁failure	-10.7403
cy	-10.7404
ांत	-10.7407
▁articles	-10.7407
▁bo	-10.7408
▁blessings	-10.741
▁अन्त	-10.741
▁नैतिक	-10.7412
▁Tri	-10.7415
▁हिमालय	-10.7416
▁शिक्षक	-10.7418
▁recompense	-10.7419
▁सू	-10.7421
▁punish	-10.7424
हे	-10.7426
▁Official	-10.7429
▁दैनिक	-10.7429
▁अस्थायी	-10.7429
है	-10.743
▁submitted	-10.743
▁सुविधाएं	-10.7434
▁cry	-10.7435
▁पैर	-10.7439
▁खींच	-10.7441
▁पाठ्यक्रम	-10.7442
▁England	-10.7442
▁Since	-10.7442
▁समृद्धि	-10.7443
▁authorities	-10.7443
▁कैसा	-10.7444
▁नियुक्ति	-10.7445
डो	-10.7446
र्इ	-10.7447
्द	-10.7447
side	-10.7448
rate	-10.7449
▁pen	-10.7449
▁memo	-10.7458
not	-10.7461
eg	-10.7462
▁Send	-10.7465
OR	-10.7467
▁replied	-10.7468
ून	-10.7473
▁attempt	-10.748
▁बिगाड़	-10.7482
▁Sur	-10.7488
▁cold	-10.749
तन	-10.7492
▁गहरा	-10.7493
त्त	-10.7494
▁communities	-10.7495
q	-10.7495
▁practices	-10.7501
▁राजनीति	-10.7504
▁Yoga	-10.7508
▁log	-10.7509
ory	-10.7511
िड	-10.7512
▁count	-10.7513
¤¤	-10.7514
▁belong	-10.7516
▁तस्वीर	-10.7518
क़ायम	-10.7519
▁निकाला	-10.7521
▁प्यार	-10.7521
▁हार्दिक	-10.7522
▁carrying	-10.7524
▁Comment	-10.7529
गल	-10.753
▁Make	-10.7533
▁teacher	-10.7537
▁individuals	-10.754
▁feeling	-10.7544
मल	-10.7547
▁Kar	-10.7547
▁wronged	-10.7548
▁College	-10.7548
▁अनुमोदन	-10.7548
▁generations	-10.7549
ंब	-10.7552
ियत	-10.7553
▁मं	-10.7556
ld	-10.7557
▁Application	-10.7562
▁चेहरे	-10.7562
▁भरा	-10.7566
▁Qu	-10.7566
▁merely	-10.7567
▁आराम	-10.7569
▁finance	-10.7575
▁integral	-10.7575
▁relief	-10.7575
▁निरीक्षण	-10.7575
▁हिंसा	-10.7575
▁सिफारिश	-10.7575
▁लाओ	-10.7577
▁reality	-10.7579
▁everyone	-10.7579
▁धातु	-10.758
▁जटिल	-10.758
gri	-10.7582
▁मानवीय	-10.7585
su	-10.7585
▁highly	-10.7585
▁requirements	-10.7588
▁Excellency	-10.7588
▁approval	-10.7588
▁fellow	-10.7588
▁review	-10.7589
▁equipment	-10.7589
▁आयी	-10.7589
▁darkness	-10.759
▁दोनो	-10.759
ments	-10.7591
▁उन्होने	-10.7596
▁schools	-10.76
▁विविधता	-10.76
पार	-10.7602
▁filter	-10.7615
▁chance	-10.7616
▁guilty	-10.7616
▁फ़ाइलें	-10.7616
▁समन्वय	-10.7617
▁विहित	-10.7617
iya	-10.7621
mu	-10.7624
▁बनाता	-10.7625
gar	-10.7625
सम	-10.7628
▁अग्र	-10.7629
▁climate	-10.7629
▁entitled	-10.7629
ङ	-10.7629
▁शुरु	-10.7629
▁delivery	-10.7634
▁diseases	-10.7638
▁माप	-10.7638
▁reminder	-10.7642
▁सितंबर	-10.7642
▁एकत्र	-10.7643
▁reform	-10.7643
▁fell	-10.7645
देन	-10.7646
▁फि	-10.7654
▁lose	-10.7654
ect	-10.7655
▁ख़ुश	-10.7655
▁33	-10.7655
▁visible	-10.7656
▁बुरे	-10.7657
40	-10.7658
▁एड	-10.7659
▁Web	-10.7661
▁myself	-10.7671
▁भले	-10.7672
▁Cha	-10.7672
▁drawn	-10.7675
▁2010	-10.7679
kha	-10.7684
▁Bal	-10.7684
:-	-10.7687
ising	-10.7689
03	-10.7691
जैसे	-10.7693
▁extension	-10.7696
RI	-10.7699
▁pi	-10.7708
▁कारोबार	-10.771
तल	-10.7711
▁प्लगइन	-10.7711
▁perfect	-10.7715
▁बरस	-10.7715
व्य	-10.7719
▁concern	-10.7723
▁admit	-10.7723
▁duties	-10.7724
▁1992	-10.7724
▁background	-10.7724
्ता	-10.7725
▁returns	-10.7729
▁नीतियों	-10.7729
▁क़ुरआन	-10.773
▁profits	-10.7734
▁ve	-10.7737
▁Company	-10.7737
▁latter	-10.7737
▁prosperity	-10.7738
एच	-10.7738
▁दिसंबर	-10.7739
ore	-10.774
▁box	-10.774
▁चिह्नित	-10.7741
▁thereby	-10.7747
ave	-10.7749
▁inner	-10.7749
▁choice	-10.7751
▁उन्नत	-10.7753
▁जोड़ा	-10.7756
▁44	-10.7758
▁150	-10.7763
▁critical	-10.7763
▁अग्रणी	-10.7766
मगर	-10.7767
▁प्रचलित	-10.7768
▁Andhra	-10.777
▁keeping	-10.7773
देव	-10.7773
▁suit	-10.7776
धार	-10.7777
▁भंडार	-10.7778
▁bodies	-10.7778
▁Life	-10.7778
▁संवर्धन	-10.7779
▁रुचि	-10.7779
▁क्र	-10.7781
▁seized	-10.7782
▁सोचा	-10.7783
▁चिह्न	-10.7784
▁सुनते	-10.7786
▁regions	-10.7788
▁settings	-10.7789
▁Two	-10.7792
▁लिमिटेड	-10.7792
▁बच्चा	-10.7792
ाब	-10.7792
port	-10.7798
▁पर्वत	-10.7798
▁agreed	-10.7801
ाकार	-10.7801
▁स्वीकृति	-10.7801
▁लाइसेंस	-10.7805
▁संपादन	-10.7806
▁picture	-10.7806
▁Gu	-10.7806
▁प्रतिष्ठित	-10.7808
▁लौटा	-10.7809
लोक	-10.7814
▁happen	-10.7816
▁ट्रैक	-10.7818
▁हट	-10.7819
रस	-10.782
▁Mighty	-10.782
hood	-10.7824
▁प्रभार	-10.7824
▁commitment	-10.7824
▁sit	-10.7829
▁स्वाभाविक	-10.7833
ns	-10.7833
▁rock	-10.7833
▁multiple	-10.7833
▁दान	-10.7833
▁उपखंड	-10.7834
▁दबा	-10.7834
▁फर्म	-10.7834
▁Rules	-10.7841
▁अना	-10.7844
▁Library	-10.786
▁क्षति	-10.7861
ID	-10.7861
▁Default	-10.7862
▁greetings	-10.7862
▁कॉलेज	-10.7864
॰	-10.7874
▁planning	-10.7875
िप	-10.7875
▁governance	-10.7875
▁दिव्य	-10.7875
▁division	-10.7876
▁Law	-10.7876
ell	-10.7876
SE	-10.7876
▁क्ल	-10.7877
▁selection	-10.7878
▁yourself	-10.7878
▁द्वितीय	-10.788
जनक	-10.788
▁झुठला	-10.7886
▁fundamental	-10.7888
बि	-10.7893
▁damage	-10.7893
▁prices	-10.79
▁जय	-10.79
▁turns	-10.7901
▁participation	-10.7902
▁Ni	-10.7904
▁रिक्त	-10.7905
मोमिनीन	-10.7907
▁नर	-10.7909
▁जहन्नम	-10.7911
▁historical	-10.7916
▁reforms	-10.7916
▁बनाये	-10.7917
▁methods	-10.7921
▁moved	-10.7923
▁reasons	-10.7923
▁पार्क	-10.7923
ेक	-10.7926
हमारे	-10.7927
▁facility	-10.793
▁leadership	-10.793
▁चौड़ाई	-10.793
स्थान	-10.793
▁02	-10.7942
▁audio	-10.7943
▁Number	-10.7944
▁अग्रिम	-10.7946
▁passing	-10.7948
▁proof	-10.7948
▁टे	-10.7948
डर	-10.7949
▁खत्म	-10.7958
▁द्वीप	-10.7964
fa	-10.7966
▁प्रविष्टि	-10.7967
▁upper	-10.7968
▁समानता	-10.7971
▁हिकमत	-10.7971
▁conference	-10.7972
▁देय	-10.7972
▁दौर	-10.7975
▁column	-10.7976
▁भावी	-10.7978
▁लानेवालो	-10.7979
▁आजादी	-10.7981
bu	-10.7983
▁although	-10.7985
▁filled	-10.7987
▁आइ	-10.7988
▁प्रवाह	-10.7989
▁सुनता	-10.7993
cul	-10.7996
▁refuge	-10.7996
▁प्रदूषण	-10.7999
▁उतारा	-10.8002
▁double	-10.8004
▁watch	-10.8004
▁जिहाद	-10.8005
▁समझता	-10.8011
▁tab	-10.8011
jan	-10.8012
▁bilateral	-10.8013
गन	-10.8014
og	-10.8015
▁ज़रा	-10.8015
▁Language	-10.8016
▁ब्र	-10.8018
br	-10.802
▁टो	-10.8021
▁See	-10.8021
▁ahead	-10.8021
▁प्रेस	-10.8021
▁Ph	-10.8022
▁आश्चर्य	-10.8027
▁victory	-10.8027
▁Reserve	-10.8027
▁आकृति	-10.8032
▁possess	-10.8034
yn	-10.8036
▁साहित्यिक	-10.8037
Comment	-10.804
aj	-10.804
▁Foreign	-10.8041
▁Date	-10.8048
▁Her	-10.8054
▁Modi	-10.8057
ूल	-10.8058
▁उतना	-10.806
▁learned	-10.8065
▁खाओ	-10.8065
ैन	-10.8068
▁द्विपक्षीय	-10.8069
▁iron	-10.8071
09	-10.8076
▁लगाए	-10.8078
▁wants	-10.8078
wan	-10.8079
▁भटक	-10.808
▁Ta	-10.808
▁चेक	-10.808
▁materials	-10.8081
▁trouble	-10.8083
▁sacred	-10.8083
▁Kumar	-10.8084
mal	-10.8084
▁उल्लेखनीय	-10.8084
▁Speaking	-10.8085
rr	-10.8085
dal	-10.8086
▁भेजी	-10.8091
▁features	-10.8091
▁agree	-10.8094
▁ज़ालिमों	-10.8097
▁क़दम	-10.8098
▁released	-10.8098
▁super	-10.8098
▁स्वर	-10.8101
ck	-10.8102
some	-10.8104
▁हमको	-10.8109
▁बादशाह	-10.811
▁हि	-10.811
▁सामूहिक	-10.8112
▁Display	-10.8112
▁स्वचालित	-10.8112
▁Health	-10.8112
▁Page	-10.8114
▁यूसुफ	-10.8117
समय	-10.812
ina	-10.8121
nal	-10.8122
par	-10.8123
मेरे	-10.8125
▁विपणन	-10.8126
▁defence	-10.8126
वाई	-10.8129
▁delete	-10.8131
मंडल	-10.8131
-1	-10.8133
▁Inter	-10.8133
▁bestowed	-10.8135
▁dark	-10.8136
▁west	-10.814
▁कर्नाटक	-10.814
▁string	-10.8141
▁मुगल	-10.8141
▁principles	-10.8144
▁Party	-10.8145
▁registration	-10.8154
▁कपड़े	-10.8155
▁Authority	-10.8155
▁Rajya	-10.8156
▁inspired	-10.8159
ल्	-10.8165
▁facilitate	-10.8168
▁teaching	-10.8171
▁fit	-10.8171
▁attitude	-10.8173
▁परिभाषित	-10.8175
▁बीमार	-10.8175
▁समूहों	-10.8177
▁बद	-10.8179
▁अवसरों	-10.8181
▁डिजाइन	-10.8183
▁मसल	-10.8183
▁aspects	-10.8187
कता	-10.8189
kh	-10.8191
▁magic	-10.8193
▁लेती	-10.8195
▁Self	-10.8197
▁सत्यापन	-10.8197
▁ऊंचाई	-10.8198
▁गहन	-10.8199
जितनी	-10.8199
▁बांध	-10.8201
▁debt	-10.8202
▁मंदिरों	-10.8204
ther	-10.8205
22	-10.8205
▁आदान	-10.8205
▁कागज	-10.8206
▁सेटिंग	-10.8208
▁बन्दे	-10.8213
▁देवता	-10.8214
cus	-10.8214
▁Chand	-10.8217
▁वंश	-10.8221
▁mission	-10.8221
▁सावधान	-10.8221
▁Check	-10.8222
▁Ab	-10.8223
▁Invalid	-10.8225
▁insurance	-10.8225
▁Pan	-10.8226
▁गहरी	-10.8226
▁User	-10.8229
▁mountain	-10.8231
▁performed	-10.8233
▁sections	-10.8235
▁दुर्घटना	-10.824
लु	-10.8241
पिता	-10.8242
▁टिप्पणी	-10.8243
▁element	-10.8243
▁ऊपरी	-10.8245
▁profession	-10.825
▁library	-10.8254
▁joined	-10.8259
▁subjects	-10.826
▁देखी	-10.8263
soever	-10.8263
▁पट	-10.8267
▁खण्ड	-10.8268
▁Assistant	-10.8268
ंध	-10.8269
▁Report	-10.827
▁Help	-10.8274
▁विद्यालय	-10.8275
▁manager	-10.8278
बु	-10.8278
▁वीर	-10.828
▁अपनाया	-10.828
पु	-10.8283
▁क्षण	-10.8284
▁volume	-10.8288
▁Print	-10.8288
▁(5)	-10.8288
▁जानवरों	-10.8294
▁गुजर	-10.8297
▁छात्र	-10.8297
▁संरक्षक	-10.8298
▁नेशनल	-10.8301
श्	-10.8302
प्रभु	-10.8311
▁Sar	-10.8313
▁सदी	-10.8313
▁suitable	-10.8314
▁फज़	-10.8316
▁Contact	-10.8317
▁राहत	-10.8319
▁2018	-10.832
▁परहेज़गार	-10.8322
▁wood	-10.8324
▁क़त्ल	-10.8326
▁Gardens	-10.8329
▁यूरोपीय	-10.8329
▁सलाम	-10.8334
▁चन्द	-10.8335
▁36	-10.8336
04	-10.8338
ेय	-10.8338
▁swear	-10.834
▁ठोस	-10.8341
▁sitting	-10.8341
CC	-10.8343
ong	-10.8344
ंप	-10.8344
▁conflict	-10.8346
▁फा	-10.8349
्ट	-10.835
▁disk	-10.8351
▁भरी	-10.8354
वाली	-10.8355
▁election	-10.8361
▁सां	-10.8362
▁जाल	-10.8363
▁challenge	-10.8365
▁छाया	-10.8366
▁मुंह	-10.8369
▁Ad	-10.8369
▁priority	-10.837
▁प्रतिभूति	-10.8371
▁सहमत	-10.8372
▁कं	-10.8372
▁महीनों	-10.8374
▁prove	-10.8374
▁साहस	-10.8375
“	-10.8376
▁अरबी	-10.8384
▁आवश्यकताओं	-10.8385
पद	-10.839
26	-10.8392
▁निष्कर्ष	-10.8392
न्ध	-10.8393
▁भक्ति	-10.8393
▁consists	-10.8397
▁recorded	-10.8397
▁वरिष्ठ	-10.8398
▁राजस्व	-10.84
▁फ़रिश्ते	-10.8405
▁nearly	-10.8409
▁चोट	-10.8411
▁Society	-10.8413
▁Buddha	-10.8413
▁विरूद्ध	-10.8413
▁register	-10.8414
▁48	-10.8416
ाते	-10.8416
▁Non	-10.8418
▁daughter	-10.8419
क्क	-10.8425
▁परम	-10.8426
▁Code	-10.8426
▁platform	-10.8427
▁भरे	-10.8427
▁stood	-10.8428
▁~	-10.8429
05	-10.8432
▁असर	-10.8435
▁caste	-10.8436
▁wage	-10.8436
▁नेपाल	-10.8439
▁ability	-10.8441
उप	-10.8441
▁300	-10.8442
▁Knower	-10.8445
▁दास	-10.8445
▁संगम	-10.8446
▁Sp	-10.8446
God	-10.8449
▁चाहेंगे	-10.8449
▁गुफा	-10.8453
▁survey	-10.8457
▁channel	-10.8463
रह	-10.8463
▁containing	-10.8464
thi	-10.8466
ीस	-10.8469
▁bow	-10.8471
प्प	-10.8471
▁manufacturing	-10.8471
▁click	-10.8472
▁ग़ौर	-10.8472
Re	-10.8472
▁विनिर्माण	-10.8472
▁डरा	-10.8473
▁faithful	-10.8473
मुख	-10.8473
▁marked	-10.8476
▁notification	-10.8476
▁अंतरिक्ष	-10.8486
▁जम्मू	-10.8486
▁allowance	-10.8487
▁micro	-10.8489
▁Mark	-10.849
ans	-10.8491
put	-10.8495
▁बौद्धिक	-10.8497
▁minutes	-10.8499
लाल	-10.8499
▁Tribunal	-10.8501
time	-10.8501
▁archive	-10.8502
▁बजट	-10.8503
▁तत्काल	-10.8503
▁लिंग	-10.8511
ब्र	-10.8513
ack	-10.8514
▁क्रांति	-10.8515
▁desert	-10.8516
▁संक्रमण	-10.8516
▁editor	-10.8517
▁wonder	-10.8518
▁charged	-10.8518
▁union	-10.8523
▁proved	-10.8525
▁recently	-10.8526
▁professional	-10.8527
▁sources	-10.8527
▁options	-10.8528
▁वकील	-10.853
▁convert	-10.8531
फर	-10.8536
न्ट	-10.8539
▁बोली	-10.8543
▁समा	-10.8543
▁लॉग	-10.8543
▁मानना	-10.8543
▁actions	-10.8543
▁डेस्कटॉप	-10.8545
▁Li	-10.8547
▁समझे	-10.8548
▁begin	-10.8549
▁sleep	-10.8557
▁1948	-10.8561
▁whereas	-10.8561
▁custom	-10.8563
ko	-10.8565
▁discussion	-10.8568
RA	-10.857
▁spoke	-10.8571
▁अन्तर्गत	-10.8575
र्ण	-10.8577
▁पहलू	-10.8577
▁प्रान्त	-10.8579
आप	-10.8585
क्त	-10.8587
▁Kovind	-10.8589
▁Class	-10.8589
▁दवा	-10.859
▁स्वर्ण	-10.859
▁centres	-10.8595
▁दृढ़	-10.8596
▁URI	-10.8596
फी	-10.8597
ms	-10.8597
▁नौकरी	-10.8598
▁thanks	-10.8601
▁successfully	-10.8601
▁चाह	-10.8602
▁script	-10.8604
▁डॉलर	-10.8605
mm	-10.8608
▁witnesses	-10.8613
एगा	-10.8615
▁उद्यान	-10.8617
▁सदस्यता	-10.8617
▁चाहा	-10.8618
▁छिप	-10.8618
▁agencies	-10.8619
▁पैकेज	-10.862
aya	-10.8622
▁कर्तव्य	-10.8625
▁seeing	-10.8625
▁hospital	-10.8625
▁broad	-10.8627
ालय	-10.863
▁धन्यवाद	-10.8634
हत	-10.8636
▁ग्रंथ	-10.8641
अर	-10.8643
▁लूत	-10.8645
▁folders	-10.8648
▁कुशल	-10.8648
▁सूत्र	-10.8649
▁प्रविष्ट	-10.8649
▁Click	-10.865
▁डिफ़ॉल्ट	-10.865
▁awareness	-10.8652
▁worth	-10.8654
dra	-10.8654
▁attached	-10.8655
lan	-10.8658
▁treated	-10.866
▁enabled	-10.8661
▁limits	-10.8662
▁इसराईल	-10.8664
▁दर्दनाक	-10.8664
▁Security	-10.8665
EC	-10.8666
ंगा	-10.8667
▁Park	-10.867
क्षा	-10.8671
▁त्वचा	-10.8679
▁shared	-10.8681
▁Part	-10.8683
▁commanded	-10.8684
▁Don	-10.8685
▁सीमाओं	-10.8693
ुन	-10.8693
▁changing	-10.8694
▁सीधी	-10.8695
▁बैठा	-10.8696
▁चाहें	-10.8697
iness	-10.87
▁1998	-10.8709
▁चीजों	-10.871
▁Another	-10.871
प्रदान	-10.8711
lin	-10.8715
▁मिलाकर	-10.8715
जल	-10.8716
▁Si	-10.8717
्वे	-10.8724
▁FOR	-10.8726
▁पासवर्ड	-10.8726
▁बचाव	-10.8726
chan	-10.8729
▁Tu	-10.8729
▁शोक	-10.8737
ोस	-10.8737
ura	-10.8737
▁sweet	-10.8739
▁शिक्षण	-10.8739
▁win	-10.874
▁मछली	-10.8741
▁संहिता	-10.8741
▁figures	-10.8746
▁आएगा	-10.8748
▁soft	-10.8751
▁repent	-10.8753
▁Export	-10.8754
▁तीसरे	-10.8754
▁बाहम	-10.8754
▁अनुज्ञात	-10.8756
▁cave	-10.8756
क्षण	-10.8758
▁showing	-10.8759
▁जानवर	-10.8762
▁Sal	-10.8764
▁तंत्रिका	-10.8764
ula	-10.8764
▁Das	-10.8767
▁क्रिकेट	-10.8769
▁forever	-10.877
▁plays	-10.8771
▁DVD	-10.8773
▁More	-10.8778
▁waiting	-10.8781
ery	-10.8783
▁nuclear	-10.8784
▁Article	-10.8786
▁फ़िरऔन	-10.8786
▁Training	-10.8787
ान्त	-10.8787
▁कहेगा	-10.8789
▁Jo	-10.8791
लेट	-10.8792
▁mouth	-10.8793
▁scientists	-10.8794
▁sh	-10.8795
▁hot	-10.8797
▁users	-10.8798
विमर्श	-10.8799
पट	-10.88
▁अर्जित	-10.88
▁हितों	-10.8801
▁पूर्ति	-10.8804
▁संत	-10.8808
ज़ी	-10.881
▁becoming	-10.881
▁achieved	-10.8813
▁burning	-10.8814
▁दर्द	-10.8817
▁latest	-10.8817
▁पक्षों	-10.8819
दास	-10.882
▁whatsoever	-10.882
▁writer	-10.8822
▁Com	-10.8825
कर्म	-10.8825
▁store	-10.8826
▁Ali	-10.8827
▁साइट	-10.8828
▁बाबू	-10.8829
▁यथास्थिति	-10.8829
▁सचेत	-10.883
gra	-10.8831
▁Press	-10.8833
▁encourage	-10.8834
▁grown	-10.8835
▁छोड़ा	-10.8836
▁Human	-10.8839
▁throw	-10.8841
▁08	-10.8845
▁असाधारण	-10.8845
▁brain	-10.8845
सू	-10.8846
▁‘‘	-10.8847
▁healthy	-10.8848
पक	-10.8848
▁democratic	-10.8851
▁रेडियो	-10.8852
▁colour	-10.8852
▁अक्षर	-10.8855
▁३	-10.8857
▁उल्लंघन	-10.886
ॉल	-10.886
▁advantage	-10.8866
▁फैल	-10.8868
▁student	-10.887
▁Karnataka	-10.8875
▁strive	-10.8876
▁कट	-10.8877
▁port	-10.8882
▁constituted	-10.8883
▁sex	-10.8885
▁Line	-10.8887
▁जीत	-10.8888
ris	-10.889
किसी	-10.889
▁फार्म	-10.8892
▁ba	-10.8893
▁ध्वज	-10.8893
▁पैमाने	-10.8894
uri	-10.8894
लर	-10.8894
▁joy	-10.8898
▁confident	-10.8905
▁प्रतियोगिता	-10.8906
▁सुसंगत	-10.8906
▁परिवारों	-10.8906
)...	-10.8907
▁भारतीयों	-10.8911
▁34	-10.8911
▁ईसाई	-10.8912
▁पाल	-10.8915
▁menu	-10.8917
▁interesting	-10.8919
▁तुम्हे	-10.8919
▁घाटी	-10.8919
▁grieve	-10.8921
▁अक्तूबर	-10.8922
▁कौ	-10.8925
80	-10.8926
2.	-10.8929
▁भेद	-10.8931
▁principle	-10.8931
▁पुस्तकों	-10.8932
▁Min	-10.8932
▁पंजीकृत	-10.8936
▁सहमति	-10.8937
▁electronic	-10.8938
▁कठिनाई	-10.8938
▁जहाज	-10.8939
▁BC	-10.8943
▁proceedings	-10.8944
▁Members	-10.8946
mon	-10.8948
ency	-10.8949
ीर	-10.895
TH	-10.895
▁Internet	-10.8952
▁रसायन	-10.8952
▁About	-10.8952
▁Year	-10.8957
▁पत्रिका	-10.8959
,—	-10.8959
▁व्यक्तित्व	-10.8961
▁wills	-10.8961
▁sat	-10.8963
▁offering	-10.8967
▁banking	-10.8969
प्ट	-10.8969
▁वाणिज्यिक	-10.8969
▁factors	-10.897
▁तत्वों	-10.8973
▁Par	-10.8976
▁सीडी	-10.8977
▁em	-10.8987
▁sentence	-10.8988
▁guides	-10.8988
▁forgiving	-10.8988
▁reports	-10.8991
▁पीढ़ी	-10.8998
▁आउट	-10.8999
▁प्रवृत्ति	-10.8999
▁theme	-10.9003
अप	-10.9003
ग्न	-10.9004
▁decades	-10.9005
▁inform	-10.9008
▁UN	-10.9011
▁layer	-10.9012
▁fuel	-10.9013
▁happiness	-10.9013
३	-10.9013
▁1950	-10.9014
क्योंकि	-10.9015
▁घटा	-10.9015
▁निकाय	-10.9018
▁frame	-10.9024
dis	-10.9025
▁merciful	-10.9029
▁प्रसंग	-10.9029
अच्छा	-10.903
▁अहले	-10.9032
▁officials	-10.9034
र्त	-10.9037
▁अवि	-10.9038
▁>>	-10.9038
▁abode	-10.9044
▁आलोचना	-10.9044
▁केंद्रित	-10.9048
▁अली	-10.9048
▁par	-10.905
▁ख्वाह	-10.905
▁उपकरणों	-10.9051
▁covering	-10.9057
▁Before	-10.906
▁आंध्र	-10.906
▁ears	-10.906
▁फोटो	-10.906
▁appears	-10.9065
कला	-10.9067
वेद	-10.9067
▁Musa	-10.9069
▁स्था	-10.9074
▁prostrate	-10.9075
▁friendship	-10.9076
▁situated	-10.9076
▁signed	-10.9077
▁कष्ट	-10.9077
▁दोहरा	-10.9077
▁उपयोगकर्ता	-10.9079
▁त्रुटिः	-10.9079
▁गरीबी	-10.9082
▁पौधों	-10.9085
क़ा	-10.9088
▁3,	-10.9089
▁piece	-10.9091
▁शक्तिशाली	-10.9092
▁Control	-10.9092
▁कोशिका	-10.9095
▁da	-10.9097
▁यूँ	-10.91
izing	-10.9103
▁ST	-10.9103
▁अमल	-10.9107
▁डूब	-10.9107
▁Roy	-10.911
▁playing	-10.911
tha	-10.9113
▁requires	-10.9113
right	-10.9113
▁Force	-10.9113
▁ति	-10.9115
_0	-10.9117
hy	-10.9121
भूत	-10.9121
▁Am	-10.9121
▁emphasis	-10.9122
▁proportion	-10.9122
▁showed	-10.9125
▁warning	-10.9126
▁काफिरों	-10.9127
▁visited	-10.9134
18	-10.9134
▁doctor	-10.9135
▁lawful	-10.9135
▁plugin	-10.9136
▁squared	-10.9136
▁drama	-10.9138
▁heritage	-10.9138
▁Justice	-10.9138
▁served	-10.9139
▁meant	-10.9139
▁Port	-10.9152
ata	-10.9152
▁patience	-10.9153
▁abide	-10.9154
▁अमर	-10.9154
▁race	-10.9156
yan	-10.9156
▁साथियों	-10.9161
यु	-10.9161
▁Sun	-10.9164
ny	-10.9168
▁accident	-10.9169
▁फ़िल्टर	-10.9169
▁married	-10.9169
▁सशक्त	-10.917
▁|	-10.9173
पत	-10.9177
▁concept	-10.9177
मक	-10.9177
▁Once	-10.9177
tes	-10.9177
ties	-10.9181
▁मुक्ति	-10.9183
▁maintenance	-10.9185
▁संदाय	-10.9186
िस्ट	-10.9186
▁बेच	-10.9187
▁proposed	-10.9187
▁दुश्मन	-10.9188
▁सकाः	-10.9189
▁insects	-10.9189
▁पहुंचे	-10.9189
▁stands	-10.9194
वाल	-10.9197
▁poem	-10.9198
¥	-10.9201
▁destruction	-10.9201
▁गठित	-10.9201
▁im	-10.9202
▁पूर्वावलोकन	-10.9202
▁Men	-10.9205
02	-10.9207
nce	-10.9208
स्थल	-10.9208
▁ताल	-10.9213
▁शिशु	-10.9214
work	-10.9218
▁जायेगी	-10.9219
▁escape	-10.9223
▁लगती	-10.9223
▁अधिकरण	-10.9228
▁00	-10.9229
▁Next	-10.9235
▁फ़िल्म	-10.9235
▁उठ	-10.9236
मुसलमानों	-10.9237
ल्ट	-10.9238
▁गढ़	-10.9238
▁हलाक	-10.9241
▁जिम्मेदार	-10.9245
▁initiative	-10.9246
▁negative	-10.9248
▁ordinary	-10.9248
▁तकलीफ़	-10.9249
▁मूलभूत	-10.9249
▁efficient	-10.925
▁announced	-10.9251
nc	-10.9253
▁#	-10.9253
ou	-10.9253
▁elected	-10.9253
▁पड़ती	-10.9254
▁पुष्प	-10.9257
ient	-10.9258
▁लाना	-10.9263
ोगे	-10.9264
▁explain	-10.9264
▁मुल्क	-10.9265
aries	-10.9267
▁engineering	-10.9267
▁Would	-10.927
▁welcome	-10.927
▁contribute	-10.927
▁extra	-10.9271
.—	-10.9271
ँग	-10.9276
▁सैनिक	-10.9276
▁इल	-10.9278
oo	-10.9278
▁Province	-10.928
▁transferred	-10.9281
नर	-10.9282
▁app	-10.9289
▁गर्म	-10.9295
▁bounty	-10.9296
▁falsehood	-10.9296
▁उपज	-10.9296
▁Jews	-10.9298
श्त	-10.93
▁Mary	-10.93
under	-10.9302
क़्	-10.9302
▁daughters	-10.9305
▁Mail	-10.9307
▁fighting	-10.931
▁toward	-10.931
▁अभिदाता	-10.931
▁लै	-10.9315
▁उपलब्धि	-10.9317
tive	-10.9319
▁मर्द	-10.9319
▁translation	-10.9326
▁tr	-10.9326
▁technologies	-10.9327
▁रिकार्ड	-10.9328
van	-10.9328
▁बचत	-10.9328
▁अंतराल	-10.9329
▁चाहती	-10.933
▁मनुष्यों	-10.9333
▁शर्त	-10.9336
▁ज़ोर	-10.9336
ila	-10.9339
▁संक्षिप्त	-10.9343
▁Command	-10.9344
द्व	-10.9344
▁पड़ेगा	-10.9348
▁hall	-10.9349
▁aims	-10.9353
int	-10.9354
▁पोर्ट	-10.9359
▁Women	-10.9359
▁tonnes	-10.936
▁organised	-10.9362
▁अस्थि	-10.9362
▁गुरू	-10.9371
▁sending	-10.9373
▁applied	-10.9375
▁जयंती	-10.9375
▁fault	-10.9375
▁रहस्य	-10.9376
ular	-10.938
▁Form	-10.9384
▁implemented	-10.9385
▁classes	-10.9385
▁४	-10.9386
▁London	-10.9392
▁operating	-10.9392
▁universities	-10.9392
▁map	-10.9399
45	-10.9399
▁उलट	-10.94
▁फायदा	-10.9402
▁फ्ल	-10.9405
▁Br	-10.9405
▁श्रेष्ठ	-10.9406
▁साम	-10.9407
▁discharge	-10.9408
▁rates	-10.9413
▁जनरल	-10.9414
king	-10.9415
तों	-10.9416
▁factor	-10.9416
▁पोस्ट	-10.942
▁objects	-10.9421
▁mobile	-10.9424
चित	-10.9431
fer	-10.9434
▁हस्त	-10.944
▁Chapter	-10.944
▁senior	-10.944
▁कथन	-10.944
▁Close	-10.944
▁टाल	-10.944
▁लगाना	-10.9444
▁records	-10.9444
▁recognised	-10.9447
▁courts	-10.945
▁input	-10.9451
▁चाय	-10.9451
▁discipline	-10.9458
चल	-10.9458
▁billion	-10.9461
क्षेत्र	-10.9465
▁unable	-10.9465
वाह	-10.9467
raj	-10.947
▁दरबार	-10.9471
No	-10.9472
ॉन	-10.9474
▁बनकर	-10.9474
भाग	-10.9475
oli	-10.9482
▁हॉ	-10.9486
fully	-10.9487
▁fi	-10.9488
▁principal	-10.9488
▁Nadu	-10.9489
▁विष्णु	-10.9489
▁skill	-10.949
▁HTML	-10.9491
▁रोका	-10.9491
gan	-10.9492
▁बेटा	-10.9493
ौर	-10.9493
▁Mal	-10.9497
▁currently	-10.95
▁License	-10.9505
▁स्वामित्व	-10.9505
▁Economic	-10.9505
▁दलील	-10.9505
▁temperature	-10.9505
▁letters	-10.9505
▁symbol	-10.9505
वृत्त	-10.9508
▁डिजिटल	-10.951
▁मंडल	-10.9512
▁formation	-10.9513
▁निवासी	-10.9515
▁orders	-10.9515
▁Fa	-10.9517
टक	-10.9518
जात	-10.9524
▁smaller	-10.9531
तार	-10.9531
▁sad	-10.9532
▁weeks	-10.9535
▁भूख	-10.9535
▁plot	-10.9536
▁couple	-10.9537
▁सम्पर्क	-10.9537
▁tribal	-10.9537
▁Bose	-10.9541
▁acquired	-10.9543
▁Find	-10.9548
▁El	-10.9549
ger	-10.9551
▁blessed	-10.9553
▁दुःख	-10.9553
▁Jammu	-10.9554
▁योग्यता	-10.9556
▁minds	-10.9558
ada	-10.9568
▁कारणों	-10.9568
▁संभावित	-10.957
▁संचालित	-10.957
▁प्रभाग	-10.9572
धीरे	-10.9573
▁Kha	-10.9573
▁चौ	-10.9577
▁कूट	-10.958
▁मादा	-10.9581
▁currency	-10.9586
▁निष्पादन	-10.9586
▁contacts	-10.9591
▁चन्द्र	-10.9595
SS	-10.9595
▁जुड़ा	-10.9598
▁obtained	-10.9598
टन	-10.96
08	-10.96
▁ch	-10.9603
▁डराने	-10.9605
▁followers	-10.9608
▁stream	-10.961
▁th	-10.961
▁गोया	-10.961
▁बहुतेर	-10.9612
AD	-10.9612
▁37	-10.9614
▁Noah	-10.9614
▁बैंकिंग	-10.9616
▁drugs	-10.9618
▁गाँव	-10.9619
▁bringing	-10.962
▁doesn	-10.9622
▁पल	-10.9623
▁sends	-10.9625
▁permanent	-10.9628
फल	-10.9629
▁tea	-10.963
▁depend	-10.9634
▁बढ़ने	-10.9635
▁administrative	-10.9635
▁hurt	-10.9636
▁साक्ष्य	-10.9636
▁आज्ञा	-10.9645
▁उत	-10.9651
▁Clear	-10.9651
▁skills	-10.9653
▁अर्ज़	-10.9656
▁Mother	-10.9657
▁आफ	-10.9666
▁Car	-10.9668
▁jurisdiction	-10.9668
▁politics	-10.9668
▁marry	-10.9669
▁argument	-10.967
▁Social	-10.9671
राव	-10.9671
मार्ग	-10.9672
▁dog	-10.9672
▁organized	-10.9673
21	-10.9673
ीम	-10.9681
▁beings	-10.9684
▁pollution	-10.9685
▁supreme	-10.9685
▁फ़रिश्तों	-10.9685
▁चुनौतियों	-10.9685
▁खतरा	-10.9685
▁लिपि	-10.9686
▁graph	-10.9687
▁weather	-10.9688
▁बाग	-10.9691
23	-10.9694
▁notes	-10.9698
▁सन	-10.9699
▁बॉ	-10.97
ls	-10.97
▁साझीदार	-10.9701
▁revenue	-10.9701
▁corruption	-10.9702
▁bi	-10.9703
▁western	-10.9703
▁compared	-10.9704
▁decisions	-10.9705
ass	-10.9705
LE	-10.9706
▁प्रेषित	-10.9707
ew	-10.9707
▁Governments	-10.9708
▁उपर	-10.9711
▁1"	-10.9715
▁scholars	-10.9717
▁कोविन्द	-10.9718
ide	-10.9719
▁dealing	-10.9721
▁solution	-10.9721
▁8.	-10.9725
▁स्टेशन	-10.9725
▁यु	-10.9726
▁मक्का	-10.9728
07	-10.973
▁गिरफ्तार	-10.9733
हल	-10.9734
▁अनुपालन	-10.9735
ाइ	-10.9735
▁dedicated	-10.9736
▁belonging	-10.974
▁आबादी	-10.9744
▁substance	-10.9745
▁वर	-10.9747
▁publication	-10.975
▁क़ुबूल	-10.9751
▁बस्तियों	-10.9751
▁Vishnu	-10.9751
▁Server	-10.9752
▁hasten	-10.9753
आख़िर	-10.9753
▁vote	-10.9757
▁solar	-10.9763
hara	-10.9764
▁didn	-10.9767
▁Affairs	-10.9768
▁enemies	-10.9768
▁रिजर्व	-10.9768
ग़रज़	-10.9772
▁Shiva	-10.9772
▁household	-10.9773
rid	-10.9774
गण	-10.9775
▁स्वीकृत	-10.9778
ants	-10.978
निशानियों	-10.9781
▁Call	-10.9783
▁शिक्षकों	-10.9785
▁citizen	-10.9786
▁अनाज	-10.9787
▁देगें	-10.9788
▁medicine	-10.979
ंडा	-10.9799
▁सीख	-10.9799
▁Business	-10.9801
▁1991	-10.9802
▁चीज़े	-10.9807
▁विद्वान	-10.9808
▁Legislative	-10.9818
▁grateful	-10.9818
▁स्मरण	-10.9824
▁चमक	-10.9825
▁Orissa	-10.9835
▁specify	-10.9838
▁settled	-10.9841
▁उत्	-10.9841
▁behold	-10.9842
▁cha	-10.9846
und	-10.9846
▁addressed	-10.9849
▁बाधा	-10.9851
▁valley	-10.9852
▁rice	-10.9852
▁rent	-10.9853
▁सफलतापूर्वक	-10.9853
▁gather	-10.9854
▁जातियों	-10.9855
▁सामान्यतः	-10.9855
▁appeared	-10.9856
फे	-10.986
▁looks	-10.9866
४	-10.9867
▁उत्पादक	-10.9868
▁arms	-10.9868
▁counsel	-10.9869
▁कमज़ोर	-10.9869
▁वंचित	-10.9869
▁पैसे	-10.9871
६	-10.9871
हि	-10.9873
tt	-10.9877
▁mere	-10.988
rit	-10.9882
▁helps	-10.9885
▁सेक्टर	-10.9885
info	-10.9889
▁districts	-10.9892
▁Joseph	-10.9892
▁धारणा	-10.9892
▁चे	-10.9898
▁tool	-10.9898
▁पूछो	-10.9899
▁शु	-10.9901
▁औपचारिक	-10.9902
▁अकेले	-10.9902
▁zone	-10.9903
▁Master	-10.9903
▁prime	-10.9905
▁committee	-10.9905
ग्र	-10.9909
▁जु	-10.991
▁पुल	-10.991
▁चू	-10.991
▁designed	-10.991
▁टुकड़े	-10.9911
AB	-10.9914
▁Environment	-10.9915
▁devotion	-10.9915
28	-10.9919
▁सरपरस्त	-10.9919
▁Disable	-10.9922
▁मशीनरी	-10.9923
▁लेगा	-10.9923
▁चीजें	-10.9926
▁रानी	-10.9927
▁sand	-10.993
ET	-10.9931
▁rare	-10.9934
क्र	-10.9935
▁judgment	-10.9936
▁crime	-10.9936
▁palace	-10.9936
▁utter	-10.9936
▁Foundation	-10.9937
▁घट	-10.9937
▁gift	-10.994
sk	-10.9942
▁digital	-10.9948
▁train	-10.995
▁End	-10.9951
▁आमाल	-10.9951
▁मौलिक	-10.9953
▁कर्ता	-10.9959
▁पदार्थों	-10.996
▁नस्ल	-10.9961
▁constant	-10.9963
▁कृपा	-10.9963
▁आरंभिक	-10.9965
▁noble	-10.9965
▁buy	-10.9971
▁अप्र	-10.9974
▁sexual	-10.9974
▁मू	-10.9976
▁इनसे	-10.9978
▁छू	-10.9978
▁conducted	-10.998
हु	-10.9984
▁gathered	-10.9984
जान	-10.9984
शु	-10.9987
▁1996	-10.9988
▁electricity	-10.9988
▁ऋ	-10.9996
▁५	-10.9998
▁विशेषज्ञ	-11
▁Network	-11.0004
▁Unknown	-11.0004
▁route	-11.0005
▁देशी	-11.0006
▁माने	-11.0008
▁sculpture	-11.0008
▁transaction	-11.0009
rn	-11.0009
▁इलाज	-11.0011
▁कोष	-11.0013
▁recite	-11.0014
▁चा	-11.0021
▁territory	-11.0021
oon	-11.0023
▁Has	-11.0024
▁संशोधित	-11.0024
▁fourth	-11.0026
gh	-11.003
▁revolution	-11.0037
▁विद्यार्थी	-11.0039
▁विद्रोह	-11.0039
▁जुड़ी	-11.0039
‘	-11.004
▁पहुंचने	-11.0043
▁तंग	-11.0043
▁judgement	-11.0048
▁adequate	-11.0049
▁Forest	-11.005
बत	-11.0052
▁spot	-11.0053
▁centuries	-11.0056
▁उत्तरदायी	-11.0056
▁सकी	-11.0059
▁facts	-11.006
▁delay	-11.006
▁निकलने	-11.006
▁जानकर	-11.0064
▁Note	-11.0064
ries	-11.0065
▁Ju	-11.0068
▁ga	-11.0069
ियम	-11.0069
ade	-11.0071
▁John	-11.0073
▁ब्रिटेन	-11.0073
▁किलोमीटर	-11.0073
▁pride	-11.0073
▁hrs	-11.0074
ulation	-11.0076
▁conceal	-11.0076
ear	-11.0077
▁thousands	-11.0082
शाला	-11.0086
▁4,	-11.0086
▁अग्नि	-11.009
▁नवंबर	-11.009
▁स्वभाव	-11.0091
▁प्रथा	-11.0091
▁audit	-11.0092
▁seemed	-11.0093
▁branches	-11.0094
ign	-11.0103
▁holds	-11.0109
60	-11.0109
▁Arabic	-11.011
्ज़	-11.011
▁reported	-11.0112
sis	-11.0113
▁सवार	-11.0113
अब	-11.0113
▁center	-11.0114
▁रहमान	-11.0115
▁हाथी	-11.012
९	-11.0123
▁cricket	-11.0125
▁दिमाग	-11.0125
▁ब्राह्मण	-11.0126
▁stars	-11.0126
▁ji	-11.0127
▁पिछली	-11.0127
▁instruments	-11.0128
▁marketing	-11.0131
▁examples	-11.0139
▁bus	-11.0139
▁afraid	-11.0142
▁university	-11.0142
▁इन्सान	-11.0142
▁thereafter	-11.0144
▁motion	-11.0144
▁Whoever	-11.0145
▁क़रीब	-11.0146
▁functioning	-11.0146
▁आदम	-11.0148
▁Industrial	-11.015
▁निभा	-11.0157
▁सुर	-11.0157
dhi	-11.0158
▁liquid	-11.0159
▁zero	-11.0159
▁suddenly	-11.0164
▁टि	-11.0165
▁sell	-11.0166
▁Card	-11.0168
▁ear	-11.0171
bit	-11.0172
▁metal	-11.0173
▁समुचित	-11.0177
▁roof	-11.0177
▁सिद्धांतों	-11.0185
▁सकेगी	-11.0185
नगर	-11.0186
▁Red	-11.0194
▁blue	-11.0194
▁अन्तिम	-11.0194
ाइल	-11.0195
▁लड़की	-11.0197
▁decree	-11.0202
▁झुक	-11.0207
▁Auto	-11.021
▁एहसान	-11.0211
▁पंडित	-11.0211
▁agency	-11.0211
▁objectives	-11.0212
▁category	-11.0213
log	-11.0213
▁मासिक	-11.0215
▁उद्देश्यों	-11.0216
xi	-11.022
र्द	-11.0221
▁संग	-11.0222
▁पोषण	-11.0223
▁हिंदुस्तान	-11.0228
▁नवीन	-11.0229
▁atmosphere	-11.0229
▁eligible	-11.0229
▁identified	-11.0229
▁ज़कात	-11.0229
▁परसतिश	-11.0229
▁unknown	-11.0229
▁सहेज	-11.0231
ates	-11.0234
▁ग़	-11.0235
II	-11.0237
▁Lal	-11.0238
ेंस	-11.0239
▁पौधे	-11.024
▁finally	-11.0243
▁बढ़ते	-11.0244
▁brief	-11.0246
▁मददगार	-11.0248
▁दम	-11.0248
यान	-11.0251
▁receipt	-11.0252
▁pan	-11.0255
▁मांस	-11.0259
▁para	-11.0259
▁बीस	-11.026
▁properly	-11.0261
▁इसपर	-11.0261
्ले	-11.0262
06	-11.0263
▁आमंत्रित	-11.0264
▁maintained	-11.027
▁font	-11.027
ीज	-11.0271
▁कराना	-11.0273
ini	-11.0273
▁Flag	-11.0278
पित	-11.0279
▁रवीन्द्रनाथ	-11.0281
▁उड़	-11.0282
▁terrible	-11.0284
▁बुलाया	-11.0285
▁यहूदी	-11.0285
ral	-11.0286
▁दक्षिणी	-11.029
lt	-11.0297
▁tasks	-11.0299
▁thirty	-11.0299
▁प्रसंस्करण	-11.0299
▁creative	-11.0299
▁thoughts	-11.0303
▁ad	-11.0303
▁वर्णित	-11.0304
75	-11.0305
▁अं	-11.031
pos	-11.0312
Assessing	-11.0317
▁पीने	-11.0322
▁Remember	-11.0323
▁आदत	-11.0328
other	-11.0331
▁Choose	-11.0334
▁महाभारत	-11.0335
▁नील	-11.0337
▁career	-11.0337
ट्स	-11.034
”.	-11.034
dr	-11.0342
old	-11.0343
▁(2	-11.0343
▁अत्याचारी	-11.0344
▁camel	-11.0349
let	-11.035
▁closed	-11.0351
▁कामों	-11.0352
▁अनुसूची	-11.0352
▁संस्थापित	-11.0353
▁उठे	-11.0354
▁प्रतिष्ठा	-11.0354
▁Best	-11.0356
▁bridge	-11.0356
ख़बरी	-11.0361
▁blame	-11.0363
my	-11.0364
▁ब्रह्म	-11.0366
वर्ग	-11.0368
▁खनिज	-11.037
▁कमरे	-11.037
bb	-11.0373
cept	-11.0378
्टर	-11.0378
▁formal	-11.0382
▁दरिया	-11.0384
uch	-11.0386
▁कोलकाता	-11.0387
▁properties	-11.0388
▁Rural	-11.0388
▁इस्लामी	-11.039
▁settlement	-11.0391
ग्रस्त	-11.0395
ue	-11.0396
▁Ministers	-11.0399
▁Yes	-11.0403
▁वाक़िफ	-11.0403
अनु	-11.0404
▁Principal	-11.0405
▁परिवेश	-11.0405
▁Pr	-11.0405
▁offices	-11.0407
क़ुरान	-11.0411
▁effects	-11.0413
▁न्यायिक	-11.0413
▁बचाने	-11.0415
भि	-11.0418
▁आउटपुट	-11.0423
▁occurred	-11.0423
dha	-11.0423
▁शानदार	-11.0423
▁पैरवी	-11.0426
▁2019	-11.0428
▁देगी	-11.0429
▁employer	-11.0429
▁Adam	-11.043
▁tri	-11.0431
▁सोने	-11.0432
▁Mon	-11.0432
▁Subhas	-11.0434
▁पहाड़ी	-11.0436
▁fort	-11.0438
▁Eastern	-11.0441
▁प्रोजेक्ट	-11.0441
▁मॉ	-11.0441
▁भर्ती	-11.0441
▁आचरण	-11.0442
प्त	-11.0443
▁wear	-11.0446
नेट	-11.0447
▁दावे	-11.045
मिन	-11.0451
▁hit	-11.0455
▁प्रकाशना	-11.0457
▁band	-11.0458
▁identity	-11.0459
▁तरीकों	-11.0459
▁शैक्षणिक	-11.0459
▁हैदराबाद	-11.0459
▁Video	-11.0459
▁तापमान	-11.0459
▁bio	-11.0462
▁fat	-11.0462
▁le	-11.0464
ati	-11.0468
▁परे	-11.0469
▁flowers	-11.047
ंगल	-11.0471
▁Windows	-11.0473
AC	-11.0474
▁साझी	-11.0475
▁Mughal	-11.0476
▁कम्प्यूटर	-11.0476
▁steel	-11.0476
▁president	-11.0477
▁जादूगर	-11.0477
ea	-11.0477
▁रखकर	-11.0477
ज्ञान	-11.0478
▁undertaken	-11.0479
शोथ	-11.0479
▁Regional	-11.0479
▁launch	-11.0481
▁occur	-11.0481
shi	-11.0482
▁इन्	-11.0484
▁panel	-11.0486
▁earn	-11.0494
▁Association	-11.0494
▁Buddhist	-11.0494
आख़ेरत	-11.0494
▁विभेद	-11.0495
CE	-11.0497
▁बहादुर	-11.0497
▁गहराई	-11.0498
▁जायें	-11.0499
▁Narendra	-11.0504
▁feature	-11.0505
▁observe	-11.0505
▁निकालने	-11.0508
▁advanced	-11.051
▁Civil	-11.0512
▁Small	-11.0512
▁बहस	-11.0513
▁खून	-11.0514
▁accused	-11.0514
▁शराब	-11.0516
▁Ku	-11.0519
त्य	-11.052
▁मनो	-11.052
▁plans	-11.052
▁इक	-11.0521
▁deity	-11.0522
▁अभिलाभ	-11.0522
29	-11.0527
▁धु	-11.0527
▁Agriculture	-11.053
▁Divine	-11.053
▁analysis	-11.053
▁architecture	-11.053
▁वारिस	-11.0531
▁चावल	-11.0531
▁गर्व	-11.0531
▁तमिलनाडु	-11.0532
▁सम्भव	-11.0532
▁broken	-11.0533
▁वैसा	-11.0533
▁पू	-11.0533
पात	-11.0536
खंड	-11.0537
▁ज़बान	-11.0541
▁अर्	-11.0542
▁सम्मानित	-11.0543
▁आपसे	-11.0545
▁prayers	-11.0547
35	-11.0549
▁एहद	-11.0549
▁हटाएँ	-11.0551
▁farm	-11.0553
▁प्रसाद	-11.0555
पि	-11.0556
▁निकले	-11.0559
▁वापसी	-11.056
्री	-11.0562
▁लिखें	-11.0562
▁temporary	-11.0566
▁Chinese	-11.0566
▁Although	-11.0566
▁Jan	-11.0567
ming	-11.0567
▁sold	-11.057
दिन	-11.0571
▁mine	-11.0572
▁नेत्र	-11.0572
▁loans	-11.0573
▁arrived	-11.0574
बो	-11.0576
ged	-11.0577
▁deleted	-11.0578
▁environmental	-11.058
ऑ	-11.0583
▁applicable	-11.0584
▁Link	-11.0585
▁conscious	-11.0585
▁capable	-11.0586
▁heads	-11.0594
ाप	-11.0595
▁elections	-11.0596
▁Em	-11.0598
▁रास्त	-11.0599
ole	-11.0599
27	-11.06
ST	-11.0602
▁flag	-11.0604
▁initiated	-11.0606
▁theory	-11.0607
ify	-11.0611
▁घड़	-11.0615
▁Trust	-11.062
लिन	-11.062
▁narrow	-11.0621
▁markets	-11.0622
▁Limited	-11.0624
DA	-11.0625
च्च	-11.0626
▁bird	-11.0627
▁coal	-11.0628
▁humanity	-11.0633
▁Signs	-11.0635
▁कृति	-11.0639
▁width	-11.0639
▁अभ्यास	-11.0639
▁इसीलिए	-11.0639
▁स्वप्न	-11.0639
▁ज़रिए	-11.0639
▁झील	-11.064
▁मिश्रण	-11.0643
▁cool	-11.0643
▁counter	-11.0643
▁जंगल	-11.0647
मूल	-11.0649
▁initial	-11.0655
▁निकाले	-11.0656
▁configuration	-11.0657
▁sustenance	-11.0657
▁हस्तक्षेप	-11.0657
▁छोड	-11.0657
▁Nature	-11.0658
▁मानी	-11.066
over	-11.0664
ेक्ट	-11.0666
▁Sea	-11.0671
▁draft	-11.0675
▁commission	-11.0675
▁Believers	-11.0676
▁losers	-11.0676
▁Speaker	-11.0677
▁respective	-11.0677
▁उच्चतर	-11.0681
निर्देश	-11.0681
▁pages	-11.0683
▁fulfilled	-11.0684
▁आर्	-11.0693
▁simply	-11.0694
▁हाज़िर	-11.0694
▁मुद्दे	-11.0694
▁disbelief	-11.0694
▁नवम्बर	-11.0694
रम	-11.0696
▁movements	-11.0697
▁processes	-11.0698
▁अद	-11.07
गार	-11.0702
वै	-11.0708
▁sick	-11.071
▁fifty	-11.0712
▁Like	-11.0713
AS	-11.072
▁possession	-11.0724
NAME	-11.0727
car	-11.0727
▁informed	-11.0728
▁परत	-11.073
▁सैन्य	-11.0731
▁तारा	-11.0733
▁Israeli	-11.0735
▁Hi	-11.0735
जु	-11.0738
▁Fi	-11.074
▁employee	-11.0741
▁समर्थ	-11.0745
▁वाणिज्य	-11.0749
▁immense	-11.0749
▁छुटकारा	-11.0749
▁समाहित	-11.0749
▁equally	-11.0749
▁गहरे	-11.075
▁पुकारा	-11.0753
IL	-11.0753
wi	-11.0755
गम	-11.0757
▁treat	-11.0757
▁महाराजा	-11.0759
▁sister	-11.0759
▁09	-11.0762
▁नी	-11.0764
▁twelve	-11.0767
▁डालें	-11.0767
▁poets	-11.077
▁ईमानवाले	-11.0773
▁cow	-11.0773
▁कायम	-11.0778
well	-11.0778
▁border	-11.0778
▁जैन	-11.0778
▁flower	-11.078
▁1000	-11.0781
▁contents	-11.0785
▁Judgment	-11.0786
▁संदेय	-11.0786
▁विक्रय	-11.0792
▁Just	-11.0793
ME	-11.0797
प्रति	-11.0797
▁uses	-11.0804
वासियों	-11.0807
▁अवज्ञा	-11.0807
▁finding	-11.0808
▁tube	-11.0818
▁j	-11.082
▁Support	-11.0823
▁compensation	-11.0823
μ	-11.0823
▁thread	-11.0823
▁मानवता	-11.0823
▁सहारा	-11.0823
▁express	-11.0825
▁mostly	-11.0825
▁whenever	-11.0825
▁Pe	-11.0826
nia	-11.083
▁Award	-11.083
▁NAME	-11.0834
▁मानता	-11.0836
▁वैज्ञानिकों	-11.0836
▁burn	-11.0838
▁मार्क	-11.0839
▁tomorrow	-11.0841
▁सकारात्मक	-11.0841
▁1997	-11.0841
▁require	-11.0842
▁प्रसन्न	-11.0844
▁दूरस्थ	-11.0846
▁समुदायों	-11.0846
▁सतत	-11.0847
तुम्हारे	-11.0848
▁Pi	-11.0851
but	-11.0853
▁Vice	-11.0853
hor	-11.0859
▁bottom	-11.086
▁दर्जे	-11.0861
▁Swami	-11.0862
▁लंबाई	-11.0862
▁offline	-11.0863
स्ट्र	-11.0873
▁radio	-11.0873
▁fee	-11.0875
▁links	-11.0876
▁turning	-11.0877
▁ग्राफ	-11.0877
▁promoting	-11.0878
▁virtue	-11.0878
▁सम्पत्ति	-11.0878
▁उतनी	-11.088
tric	-11.0886
चित्र	-11.0888
......	-11.0888
▁अंग्रेज	-11.0894
▁Th	-11.0895
▁absence	-11.0897
▁1990	-11.0897
▁Gra	-11.0898
pu	-11.0899
समझ	-11.09
▁प्रतिफल	-11.0901
▁मोह	-11.0901
▁palm	-11.0904
▁प्रक्रियाओं	-11.0905
▁फट	-11.0905
सल	-11.0906
▁शो	-11.0914
▁मित्रों	-11.0915
▁equity	-11.0916
▁65	-11.0916
▁प्रांत	-11.0917
▁पंख	-11.0925
▁पाता	-11.0926
र्जन	-11.0928
▁संधि	-11.0929
that	-11.0932
▁Para	-11.0932
▁fe	-11.0933
▁Museum	-11.0934
▁Persian	-11.0934
▁अकेला	-11.0934
▁इंडियन	-11.0935
▁respite	-11.0935
▁pension	-11.0935
▁civilization	-11.0935
▁Bangladesh	-11.0936
ved	-11.0937
rat	-11.0938
▁रुक	-11.0938
▁Gha	-11.0938
▁जोड़े	-11.094
▁जायेंगे	-11.0941
ob	-11.0943
▁अक्ष	-11.0947
▁Unit	-11.0948
विक	-11.0948
▁पुरुषों	-11.095
▁Comp	-11.0951
▁तह	-11.0951
▁तकलीफ	-11.0952
▁निशान	-11.0953
▁सच्ची	-11.0953
▁परिभाषा	-11.0954
▁Local	-11.0954
▁quarter	-11.0956
ब्ब	-11.0961
▁कक्षा	-11.0962
▁42	-11.0965
▁रचनात्मक	-11.0973
▁Light	-11.0974
▁विवेक	-11.0976
▁काश	-11.0977
▁बिन्दु	-11.0977
ita	-11.0978
▁Scheduled	-11.0981
िक्स	-11.0983
▁आद	-11.0985
▁SC	-11.0987
▁floor	-11.0991
▁रिकॉर्ड	-11.0991
▁जितने	-11.0991
▁कनेक्ट	-11.0991
▁Independence	-11.0992
▁जापान	-11.0994
▁auto	-11.0994
▁Schedule	-11.1
▁prepare	-11.1
▁बग	-11.1001
्टी	-11.1002
▁मंजूरी	-11.1003
ाइन	-11.1006
ivity	-11.1007
▁aside	-11.1009
▁gra	-11.101
rum	-11.101
▁Madhya	-11.101
ese	-11.1011
▁extremely	-11.1015
▁obtain	-11.1016
▁बडी	-11.1016
▁distinguished	-11.1016
▁Bad	-11.1018
▁Babu	-11.102
▁2016)	-11.1022
▁proposal	-11.1023
▁resident	-11.1023
▁displayed	-11.1027
▁sorrow	-11.1029
रक	-11.1029
▁कलाकार	-11.1035
▁Pal	-11.1036
▁पदों	-11.1039
उनकी	-11.104
▁व्यवस्थित	-11.1047
▁साहब	-11.1048
▁बारह	-11.1048
▁infection	-11.1049
▁composed	-11.1049
▁costs	-11.1053
light	-11.1054
▁attend	-11.1062
▁भंग	-11.1066
शर	-11.1066
▁differences	-11.1066
▁परिचित	-11.1067
▁Trade	-11.1068
▁जुड़	-11.1069
मुझे	-11.1075
▁कुफ्र	-11.1075
हरी	-11.1077
▁favor	-11.1082
tur	-11.1083
fl	-11.1089
▁समितियों	-11.1091
▁गेंद	-11.1092
▁runs	-11.1093
▁IP	-11.1096
▁aspect	-11.1098
▁starting	-11.1101
▁संतुलन	-11.1105
▁उत्पा	-11.1105
▁tourism	-11.1105
▁कीजिए	-11.1106
▁creatures	-11.1106
▁इनपुट	-11.1106
▁horse	-11.1107
▁flat	-11.1107
▁Options	-11.1108
▁wherever	-11.1111
[	-11.1113
▁owner	-11.1116
▁व्यस्त	-11.1119
ंघ	-11.1123
▁̄à	-11.1124
▁mandapa	-11.1124
▁अमरीकी	-11.1124
▁सिंचाई	-11.1124
▁Middle	-11.1124
▁आकलन	-11.1124
▁डिग्री	-11.1124
▁घनिष्ठ	-11.1124
▁Except	-11.1124
▁apostles	-11.1127
ज़र	-11.1132
▁represents	-11.1135
▁डालते	-11.114
▁expenses	-11.1142
▁bone	-11.1143
▁bomb	-11.1144
▁directed	-11.1145
नियम	-11.1145
▁sustainable	-11.1147
▁स्टेट	-11.1151
▁divide	-11.1152
▁ऊ	-11.116
▁chapter	-11.1162
▁अनुमोदित	-11.1162
▁French	-11.1162
▁talent	-11.1162
▁1993	-11.1162
▁intention	-11.1163
▁wrongdoers	-11.1169
ley	-11.1174
▁नामः	-11.1177
▁जला	-11.1179
▁prior	-11.118
▁happens	-11.118
▁deeply	-11.118
लाइन	-11.1185
मैन	-11.1185
▁chargeable	-11.1186
▁actor	-11.1187
▁quickly	-11.1188
▁refused	-11.1188
▁मृत	-11.1189
▁cease	-11.1191
दू	-11.1191
▁लगाते	-11.1193
िज़	-11.1193
▁ge	-11.1196
▁पोत	-11.12
len	-11.12
़त	-11.12
▁signature	-11.1201
▁Take	-11.1202
▁courage	-11.1205
▁girls	-11.1206
▁gl	-11.121
▁प्रतिमा	-11.1211
▁कुशलता	-11.1211
▁remaining	-11.1216
▁teach	-11.1219
▁bright	-11.1219
▁admitted	-11.1221
▁संभवतः	-11.1221
▁print	-11.1229
▁१८	-11.123
FC	-11.1235
▁improvement	-11.1237
▁Hyderabad	-11.1239
▁trading	-11.1239
▁एजेंसी	-11.1239
▁acid	-11.1241
▁constitution	-11.1242
▁leads	-11.1247
▁बोलते	-11.1249
कर्ताओं	-11.1252
▁Apostle	-11.1258
▁client	-11.1258
▁intended	-11.1259
▁प्रतिकूल	-11.1259
mat	-11.126
▁prose	-11.126
▁pe	-11.1261
▁१५	-11.1263
▁bones	-11.1263
▁reaction	-11.1264
▁Nations	-11.1264
▁विनय	-11.1264
▁era	-11.1267
▁सिखा	-11.1267
▁hypocrites	-11.1268
▁रखती	-11.1269
vas	-11.1272
▁offers	-11.1275
ight	-11.1276
▁Software	-11.1278
▁अलबत्ता	-11.1278
▁पथभ्रष्ट	-11.1278
ॉट	-11.1278
▁श्वेत	-11.1278
▁टिकट	-11.128
▁organizations	-11.1281
▁पुन	-11.1282
lum	-11.1282
▁verse	-11.1286
▁प्रत्या	-11.129
▁यानी	-11.1291
▁pane	-11.1291
▁पुर	-11.1295
▁तैयारी	-11.1296
▁descend	-11.1297
▁उल्लिखित	-11.1297
▁fought	-11.1297
▁socio	-11.1305
▁Awards	-11.1305
▁Head	-11.1307
स्टा	-11.1308
▁cap	-11.1309
वही	-11.131
मू	-11.1312
▁शोर	-11.1312
▁Garden	-11.1313
▁curse	-11.1313
ound	-11.1316
▁charity	-11.1317
▁outstanding	-11.1318
भार	-11.1319
▁Current	-11.1331
▁बोध	-11.1331
▁apostle	-11.1333
▁explained	-11.1333
▁न्यायालयों	-11.1335
▁council	-11.1336
▁scope	-11.1336
▁लानत	-11.1336
▁Temple	-11.1337
▁mu	-11.1338
▁आरक्षित	-11.1338
▁दर्शाता	-11.134
▁shade	-11.1341
▁भाष्	-11.1347
टिंग	-11.1348
uff	-11.1348
▁पंच	-11.135
▁ease	-11.1351
ool	-11.1351
उसके	-11.1351
▁सम्बन्धी	-11.1352
Be	-11.1355
EN	-11.1355
▁अमरीका	-11.1355
राष्ट्रीय	-11.1358
▁desktop	-11.1358
दादा	-11.1359
▁customer	-11.136
▁ग्राहकों	-11.136
▁उभर	-11.1362
▁गण	-11.1363
▁अत	-11.1364
▁City	-11.1365
▁Key	-11.1365
ील	-11.1368
▁tongue	-11.1372
▁Sen	-11.1372
▁कुदरत	-11.1373
▁calling	-11.1373
▁violent	-11.1375
▁सम्राट	-11.1375
▁माइक्रो	-11.1375
तसबीह	-11.1375
▁क़ाबू	-11.1375
az	-11.1376
▁हलाल	-11.1378
▁एकीकृत	-11.1378
▁कोशिकाओं	-11.1378
▁कैसी	-11.138
▁entirely	-11.1381
▁वसूली	-11.1384
▁recognize	-11.1385
hil	-11.1386
▁रै	-11.1388
▁तुर्की	-11.1389
uck	-11.1394
▁ढांचा	-11.1394
दारी	-11.1394
▁Kolkata	-11.1395
▁intelligence	-11.1395
▁penalty	-11.1395
▁eternal	-11.1395
▁chain	-11.1395
▁appearance	-11.1396
स्त्र	-11.1405
▁आधा	-11.1405
cent	-11.1406
▁clouds	-11.1407
▁danger	-11.1408
ाओं	-11.1409
भू	-11.141
▁CO	-11.141
▁आह्वान	-11.1414
▁चैतन्य	-11.1414
▁दाहिने	-11.1414
▁debate	-11.1414
▁core	-11.1415
▁1986	-11.1415
▁availability	-11.1415
▁जम	-11.1417
▁attain	-11.1417
▁पृथक	-11.1419
nga	-11.1422
▁Files	-11.1423
▁exports	-11.1424
▁कारक	-11.1425
ose	-11.1426
▁1'	-11.1428
ेरे	-11.1432
name	-11.1433
▁Further	-11.1434
▁भौगोलिक	-11.1434
▁चिकित्सक	-11.1436
▁औरतें	-11.144
▁equality	-11.1443
▁अंतः	-11.1443
▁तत्त्व	-11.1445
▁heed	-11.1448
▁arrangement	-11.1452
▁स्तरों	-11.1453
▁फायदे	-11.1454
▁मजबूर	-11.1454
▁सीखने	-11.1454
▁याची	-11.1455
▁ढूंढें	-11.1456
ene	-11.1458
▁tissue	-11.1471
▁लिखते	-11.1471
▁अभिगम	-11.1472
▁depth	-11.1473
▁व्यावहारिक	-11.1473
▁glory	-11.1474
▁Sardar	-11.1474
abad	-11.1474
▁respondent	-11.1474
जर	-11.1475
▁टाइप	-11.1479
NA	-11.1481
▁खबर	-11.1481
▁400	-11.1481
प्स	-11.1484
▁recited	-11.1484
▁Tab	-11.1485
pati	-11.1486
लंब	-11.1486
gal	-11.1488
ks	-11.1488
मित	-11.149
णा	-11.149
▁होटल	-11.1491
▁suggest	-11.1491
धारी	-11.1493
▁communal	-11.1493
▁श्रीमती	-11.1494
▁करवा	-11.1496
▁enhance	-11.15
▁सुन्दर	-11.1501
▁song	-11.1503
▁Ben	-11.1503
▁collected	-11.1504
▁जर्मनी	-11.1505
▁9.	-11.1507
▁ग्रस्त	-11.1507
रन	-11.1512
▁Deputy	-11.1513
▁leaving	-11.1513
▁overcome	-11.1515
स्तर	-11.1516
▁प्रतिदिन	-11.1517
▁बोला	-11.1519
▁www	-11.1522
▁शासक	-11.1525
▁cur	-11.1525
▁चलाया	-11.1525
▁towns	-11.1525
▁अपनाने	-11.1526
▁speaking	-11.1529
▁refer	-11.1531
▁व्यष्टि	-11.1533
▁Table	-11.1534
▁गुणों	-11.1536
▁install	-11.1537
▁Noble	-11.1537
▁salt	-11.154
On	-11.154
बिल	-11.154
त्म	-11.1549
▁1987	-11.1553
▁li	-11.1553
▁अर्पित	-11.1554
pect	-11.1554
ological	-11.1554
Who	-11.1554
gr	-11.1556
▁ढेर	-11.1557
▁sa	-11.1557
▁ज़रूरत	-11.1562
▁deed	-11.1562
▁Arab	-11.1562
▁ties	-11.1563
TO	-11.1564
▁du	-11.1566
▁प्रस्तावित	-11.1568
प्राप्त	-11.157
▁Judge	-11.1571
तब	-11.1572
ject	-11.1573
▁acquisition	-11.1573
▁विज्ञप्ति	-11.1573
▁क्रेडिट	-11.1573
▁opposition	-11.1573
▁wild	-11.1573
▁database	-11.1573
▁rising	-11.1574
▁jail	-11.1575
▁slow	-11.1576
▁संपदा	-11.1576
▁प्रभार्य	-11.1576
ert	-11.1579
▁ro	-11.1579
कन	-11.1581
▁लु	-11.1582
▁रोगों	-11.1583
▁गतिविधि	-11.1583
▁कार्यरत	-11.1583
ंडी	-11.1584
▁डाय	-11.1586
▁भि	-11.1586
▁लंबा	-11.159
▁component	-11.1591
▁twice	-11.1593
▁parent	-11.1593
▁प्रजनन	-11.1593
▁सूचित	-11.1595
af	-11.1595
▁Mode	-11.1596
▁Mohammed	-11.1597
▁clay	-11.1597
anda	-11.1598
▁धो	-11.16
▁अध	-11.16
IP	-11.1602
▁लेखकों	-11.1607
▁राहे	-11.1608
▁transactions	-11.1608
रुप	-11.1609
IR	-11.1609
▁willed	-11.161
▁comprehensive	-11.1613
र्ध	-11.1614
▁Art	-11.1615
▁Settings	-11.1616
▁Army	-11.1616
▁एकदम	-11.1617
▁संपन्न	-11.1619
▁employed	-11.1619
▁प्लस	-11.1622
▁distinct	-11.1625
▁वृत्ति	-11.1626
▁43	-11.1627
िकी	-11.1629
▁पाप	-11.1631
▁सौंप	-11.1632
▁railway	-11.1632
▁Credit	-11.1633
▁beneath	-11.1633
▁telephone	-11.1633
▁03	-11.1633
▁Himself	-11.1634
das	-11.1635
▁evolution	-11.1637
▁firmly	-11.1638
▁क़ादिर	-11.1639
0,000	-11.1641
▁Tell	-11.1643
सूचना	-11.1643
▁overall	-11.1645
▁immediate	-11.1646
▁बर्फ	-11.1647
▁जू	-11.1647
▁दक्षता	-11.1647
▁घेर	-11.1649
cle	-11.1651
▁adult	-11.1652
▁guardian	-11.1653
▁diverse	-11.1654
▁Nar	-11.1656
▁differ	-11.1657
▁soldiers	-11.1658
▁पुकारते	-11.166
ंदा	-11.1669
▁continues	-11.1669
▁आपसी	-11.1672
▁neck	-11.1673
▁recognition	-11.1673
▁प्रासंगिक	-11.1673
▁Urdu	-11.1673
▁framework	-11.1674
▁Sc	-11.1674
▁सर्विस	-11.1674
तू	-11.1676
▁पान	-11.1676
▁ईरान	-11.1676
पै	-11.1676
▁आदमियों	-11.1677
▁Bas	-11.168
osis	-11.168
▁छाप	-11.168
▁भरें	-11.1682
TA	-11.1683
▁writers	-11.1685
भूमि	-11.1688
vis	-11.1689
▁legs	-11.169
▁प्रश्नों	-11.1693
▁Word	-11.1693
▁liberal	-11.1694
▁Industry	-11.1694
nagar	-11.1694
▁उम	-11.1694
▁निधन	-11.1694
▁दूँगा	-11.1695
▁alive	-11.1696
31	-11.1697
▁पुराना	-11.1697
▁2)	-11.1698
▁वास्तविकता	-11.1698
▁walls	-11.1699
▁असली	-11.1699
▁मिस्र	-11.1702
lay	-11.1707
▁47	-11.1712
▁Source	-11.1714
▁पारस्परिक	-11.1714
▁फोल्डर	-11.1714
▁प्राधिकृत	-11.1714
▁thick	-11.1714
▁tools	-11.1714
चन	-11.1716
▁डाली	-11.1717
▁enjoyment	-11.1719
oth	-11.1723
▁अंकित	-11.1723
▁मोड़	-11.1725
▁difficulty	-11.1727
▁झूठे	-11.1731
▁व्यापारी	-11.1732
नेवाली	-11.1733
▁improving	-11.1734
▁contemporary	-11.1734
▁यथार्थ	-11.1734
▁वर्मा	-11.1737
▁achievement	-11.1737
▁Play	-11.1739
▁निष्ठा	-11.1741
फ़ी	-11.1741
▁contributions	-11.1741
▁exceed	-11.1743
▁शिल्प	-11.1745
▁hill	-11.1745
▁cloth	-11.1746
▁Later	-11.1746
▁backs	-11.1748
▁solutions	-11.1752
▁revelation	-11.1754
▁आंशिक	-11.1754
▁हिमाचल	-11.1754
▁invalid	-11.1754
▁पसंदीदा	-11.1754
▁अतीत	-11.1755
&	-11.1755
वाँ	-11.1755
)]	-11.1755
▁यक़ीन	-11.1761
यत	-11.1773
ाइट	-11.1774
▁competition	-11.1775
▁Password	-11.1775
▁38	-11.1775
▁stick	-11.1776
▁bag	-11.1776
▁मज़बूत	-11.1777
34	-11.1778
▁quick	-11.1782
▁घाट	-11.179
किस	-11.1791
▁LDAP	-11.1795
▁affair	-11.1795
▁satisfied	-11.1796
▁अधिकारिता	-11.1798
36	-11.1798
▁51	-11.1801
▁2019)	-11.1801
▁Siva	-11.1802
▁affect	-11.1802
नहीं	-11.1807
लय	-11.1808
वेल	-11.1811
▁प्रयोक्ता	-11.1813
▁भु	-11.1813
▁understood	-11.1816
▁अस्वीकार	-11.1816
▁उत्सव	-11.1816
▁इकाइयों	-11.1816
▁Status	-11.1816
▁arising	-11.1816
▁preview	-11.1816
▁पक्षी	-11.1817
▁उपलब्धता	-11.1817
शासन	-11.1817
etic	-11.1818
lar	-11.1818
▁सलाहकार	-11.1819
▁ego	-11.1821
AM	-11.1822
▁पीड़ित	-11.1822
▁fo	-11.1822
▁अम	-11.1823
▁सहयोगी	-11.1824
ending	-11.1824
▁अर्जन	-11.1825
▁रन	-11.1826
पू	-11.1832
▁चलती	-11.1832
55	-11.1833
▁करेंः	-11.1836
▁Calendar	-11.1836
▁Chrome	-11.1836
▁अधिसूचित	-11.1836
▁गारंटी	-11.1836
▁drawing	-11.1837
▁POP	-11.184
▁venture	-11.1842
▁गांधीजी	-11.1843
▁Jesus	-11.1843
▁urge	-11.1847
cor	-11.1848
▁roads	-11.1851
▁दुकान	-11.1851
▁विभागों	-11.1853
िव	-11.1856
▁behaviour	-11.1857
▁executive	-11.1857
▁गंतव्य	-11.1857
▁खतरे	-11.1857
▁1995	-11.1857
▁Food	-11.1858
▁संगणना	-11.1858
▁देशवासियों	-11.1861
phy	-11.1861
tle	-11.1864
▁stones	-11.1867
▁असल	-11.1871
ons	-11.1874
▁शांत	-11.1875
धी	-11.1875
▁bond	-11.1876
▁जीन	-11.1877
▁किन्हीं	-11.1877
▁instructions	-11.1877
▁sugar	-11.1877
▁आंकड़ा	-11.1878
▁क्रमशः	-11.1878
▁Test	-11.1878
▁उतारी	-11.188
▁Joint	-11.188
▁हजारों	-11.1883
graph	-11.1884
▁विद्वानों	-11.1889
▁Ver	-11.1892
▁arm	-11.1893
▁camp	-11.1901
▁lamp	-11.1901
▁edge	-11.1902
▁invited	-11.1907
▁Che	-11.1907
nam	-11.1911
उसकी	-11.1914
▁अखिल	-11.1918
▁गर्दन	-11.1918
▁सचमुच	-11.1918
▁चट्टान	-11.1918
▁interpretation	-11.1919
▁jinn	-11.192
▁हकदार	-11.1922
▁सिरे	-11.1924
ंभ	-11.1924
▁Micro	-11.1924
▁personality	-11.1925
▁sees	-11.1928
▁मारा	-11.1928
Indeed	-11.193
ांक	-11.1931
▁कप	-11.1937
▁Action	-11.1939
▁फरमा	-11.1939
PRODUCT	-11.1939
▁arrogant	-11.1939
▁सिद्धान्त	-11.194
▁Keep	-11.1941
▁2015)	-11.1941
▁governments	-11.1941
▁उर्दू	-11.1942
▁pur	-11.1944
▁प्रबल	-11.1944
▁spite	-11.1945
▁pieces	-11.1946
▁Mor	-11.1947
▁शेयरों	-11.1948
▁सम्बन्धित	-11.1951
▁हां	-11.1953
▁डालने	-11.1956
▁Global	-11.196
▁murder	-11.196
▁ईंधन	-11.196
▁नज़दीक	-11.196
▁प्रोटोकॉल	-11.196
▁रामायण	-11.196
▁1988	-11.196
▁समूद	-11.196
▁Due	-11.1961
▁प्रभु	-11.1962
▁lying	-11.1963
▁derived	-11.1964
कट	-11.1965
▁discuss	-11.1965
▁hills	-11.1967
ography	-11.1968
▁sheet	-11.1968
▁अंग्रेजों	-11.1969
▁chemical	-11.197
▁ऑफ़	-11.197
▁शास्त्र	-11.1972
▁वर्	-11.1973
▁seeds	-11.1974
▁Legislature	-11.1981
▁preparation	-11.1981
▁राजकुमार	-11.1981
▁निगाह	-11.1981
▁औरत	-11.1983
▁attract	-11.1984
▁गर्मी	-11.1985
▁ob	-11.1986
▁se	-11.1986
LA	-11.1988
▁declare	-11.199
▁व्याख्यान	-11.1991
ूं	-11.1992
▁फो	-11.1997
▁विवरणी	-11.2
▁घुस	-11.2001
▁expansion	-11.2002
▁inspiration	-11.2002
▁अक्टूबर	-11.2002
▁गद्य	-11.2003
▁तमिल	-11.2003
RO	-11.2003
▁रोज़	-11.2006
▁उपायों	-11.2008
▁Ti	-11.201
▁(18	-11.2012
ाबाद	-11.2014
▁कू	-11.2014
▁आईडी	-11.2014
like	-11.2015
▁वाहन	-11.2018
▁Friends	-11.2019
▁depends	-11.2021
गढ़	-11.2022
▁Filter	-11.2022
▁facing	-11.2022
▁Organization	-11.2022
▁निपटान	-11.2024
▁Ask	-11.2024
▁Look	-11.2025
\\	-11.2025
▁drinking	-11.2025
▁estimated	-11.2027
त्स	-11.2029
▁अज	-11.203
Why	-11.2035
gram	-11.2036
▁पड	-11.2037
▁ताप	-11.2038
▁बेस	-11.2039
ूस	-11.2039
▁defend	-11.2039
▁circle	-11.2043
▁हज़ार	-11.2044
down	-11.2044
▁Record	-11.2044
▁asking	-11.2045
48	-11.2047
▁देखोगे	-11.2048
▁रोज	-11.2054
▁fix	-11.2054
▁communications	-11.2054
▁हिम	-11.2055
▁इमारत	-11.2055
▁हमे	-11.2056
tter	-11.2057
▁Ru	-11.2057
▁replace	-11.2059
▁regarded	-11.2061
▁संगत	-11.2062
back	-11.2063
▁Gupta	-11.2064
▁संगठित	-11.2064
विधि	-11.2065
▁कहां	-11.2066
▁distributed	-11.2067
▁अपराधी	-11.2069
▁पूर्ववर्ती	-11.2069
▁कहे	-11.2071
▁Te	-11.2072
सीसी	-11.2072
▁download	-11.2073
▁crores	-11.2073
33	-11.2074
▁55	-11.2074
▁टैग	-11.2075
▁bestow	-11.2075
बोध	-11.2076
Moses	-11.2076
ख्वाह	-11.2076
¤1	-11.2078
टिक	-11.2085
▁Something	-11.2085
▁Japan	-11.2085
▁interface	-11.2086
▁चुकता	-11.2086
ture	-11.2086
▁hardship	-11.2087
▁पैसा	-11.2088
▁servant	-11.2088
ेरी	-11.2088
▁जागरूकता	-11.209
क्का	-11.2092
▁respectively	-11.2094
▁खुल	-11.2096
००	-11.2097
▁Christians	-11.2097
▁सीता	-11.2097
▁हरि	-11.2097
ञ	-11.2099
uring	-11.2099
▁स्क	-11.2104
▁पिला	-11.2105
▁evident	-11.2106
▁guidelines	-11.2106
▁फलस्वरूप	-11.2107
▁लोकतांत्रिक	-11.2107
▁संलग्नक	-11.2108
▁1980	-11.211
own	-11.2111
▁customers	-11.2112
▁celebrated	-11.2114
▁लहर	-11.2115
▁begins	-11.2117
▁पह	-11.2118
76	-11.212
ker	-11.2123
यल	-11.2124
▁completion	-11.2127
▁पनाह	-11.2128
▁गुलाम	-11.2128
▁representative	-11.2131
▁icon	-11.2134
ुट	-11.2136
▁ratio	-11.2137
▁रूस	-11.2137
▁recognized	-11.2138
hana	-11.214
▁Amendment	-11.2141
▁ships	-11.2145
र्व	-11.2149
▁Email	-11.215
▁परिस्थिति	-11.2151
70	-11.2152
षण	-11.2154
▁मचा	-11.2154
घात	-11.2158
▁stayed	-11.2161
गामी	-11.2162
bin	-11.2163
▁पुस्तकें	-11.2164
▁ISO	-11.2166
▁शंकर	-11.2169
▁excess	-11.2169
▁लिखना	-11.2169
▁crisis	-11.217
▁judicial	-11.217
▁वैदिक	-11.217
▁मेहनत	-11.217
▁जवाहरलाल	-11.217
▁वैकल्पिक	-11.2173
▁शरण	-11.2174
रियों	-11.2174
▁cycle	-11.2174
▁consumer	-11.2174
▁busy	-11.2175
▁fr	-11.2175
▁eggs	-11.2177
pan	-11.2178
▁hardly	-11.2178
▁उन्होनें	-11.2179
▁निदेश	-11.2181
सिंह	-11.2182
▁holy	-11.2185
▁assist	-11.2187
▁Hon	-11.2187
▁परम्परा	-11.2191
▁shaped	-11.2191
▁सन्देह	-11.2191
▁theatre	-11.2192
▁घास	-11.2192
▁MA	-11.2198
▁Window	-11.2198
▁driven	-11.2199
▁रहम	-11.2201
▁outer	-11.2201
▁Ac	-11.2201
ges	-11.2201
▁गईं	-11.2203
▁signal	-11.2204
▁वेद	-11.2204
dh	-11.2206
▁वाल	-11.2208
▁अन्तर	-11.2211
▁Related	-11.2213
▁domain	-11.2215
ov	-11.2215
▁भरने	-11.2218
▁Shu	-11.2219
▁छुपा	-11.222
▁organ	-11.2221
▁बहन	-11.2221
▁फुट	-11.2222
kara	-11.2224
▁lock	-11.2226
▁AT	-11.2226
▁detailed	-11.2226
▁answered	-11.2233
▁Energy	-11.2234
▁numerous	-11.2234
▁ट्यूब	-11.2234
▁सोसाइटी	-11.2234
tel	-11.2235
▁नकद	-11.2235
▁मुह	-11.2235
▁लड़का	-11.2237
▁किले	-11.2239
▁स्विच	-11.224
▁आएगी	-11.2242
▁तीनों	-11.2243
ets	-11.2244
▁मंगल	-11.2244
ोज	-11.2244
▁शेख	-11.2244
▁fun	-11.2244
रहित	-11.2247
▁लेबल	-11.2247
मात्र	-11.2247
▁discussed	-11.2248
वत्	-11.2248
ट्ट	-11.2248
▁suggested	-11.2248
▁होगे	-11.2249
▁हथियार	-11.225
▁mid	-11.2252
▁worlds	-11.2254
्रे	-11.2255
▁Insurance	-11.2255
▁corporate	-11.2255
▁टर्मिनल	-11.2255
▁समापन	-11.2256
▁विचारधारा	-11.2257
illa	-11.2257
▁अंततः	-11.2257
▁forbid	-11.226
▁Du	-11.2261
▁agent	-11.2261
ायी	-11.2261
▁recall	-11.2263
-2	-11.2264
▁su	-11.2265
▁Log	-11.2269
che	-11.2271
क्शन	-11.2272
Is	-11.2272
▁प्रतिबंध	-11.2276
▁Pandit	-11.2276
▁बाँध	-11.2276
▁sharp	-11.2277
▁loose	-11.2277
▁worshipped	-11.2278
▁आधारभूत	-11.2279
▁दिसम्बर	-11.2279
OL	-11.2283
▁1961	-11.2284
▁प्रतिदान	-11.2285
▁भांति	-11.2286
▁tu	-11.2287
▁succeed	-11.2288
▁दशकों	-11.2288
▁leg	-11.229
▁religions	-11.229
▁कर्ण	-11.2291
▁बाध्य	-11.2293
lit	-11.2294
▁विद्या	-11.2295
ृत	-11.2295
▁Char	-11.2296
▁efficiency	-11.2298
▁Police	-11.2298
▁automatically	-11.2298
▁डॉक्टर	-11.2298
▁राजभाषा	-11.2298
▁rank	-11.2299
▁detail	-11.23
▁passage	-11.23
▁Germany	-11.2301
▁dwell	-11.2302
▁Ji	-11.2302
▁considerable	-11.2304
nes	-11.2305
▁Editor	-11.2305
▁उठाना	-11.2308
▁protector	-11.2309
DE	-11.2312
▁अल्	-11.2313
NT	-11.2314
गृह	-11.2315
▁Program	-11.2315
IM	-11.2319
¤¡	-11.2319
फरिश्ते	-11.2319
▁impossible	-11.2319
▁prominent	-11.2319
▁पोजीशन	-11.2319
▁विनाश	-11.232
▁repentance	-11.232
▁ड्राइव	-11.2321
वर्तन	-11.2322
▁संभाल	-11.2323
▁Mah	-11.2324
▁Sign	-11.2325
▁masses	-11.2325
▁Shi	-11.2326
▁distinction	-11.2327
▁Pat	-11.2328
▁sisters	-11.2329
▁grain	-11.233
छा	-11.233
ेगी	-11.2331
▁noted	-11.2334
्ह	-11.2334
▁traffic	-11.2341
▁दीजिए	-11.2341
▁सारांश	-11.2341
▁Similarly	-11.2343
▁drug	-11.2343
▁योजनाएं	-11.2344
▁pious	-11.2347
pal	-11.2347
dd	-11.2348
▁होगें	-11.235
▁constitute	-11.2352
▁stages	-11.2353
▁खेत	-11.2354
चक	-11.2355
their	-11.2356
▁प्रमाणित	-11.2357
श्य	-11.2357
▁fail	-11.2358
bal	-11.2358
▁मंडप	-11.2359
ट्र	-11.236
▁flood	-11.2362
▁strategy	-11.2362
▁प्रोफेसर	-11.2362
▁भरपूर	-11.2363
▁तीसरा	-11.2364
▁भगवान्	-11.2366
▁दोज़ख़	-11.2366
▁आशय	-11.2367
▁05	-11.2369
▁filed	-11.2372
▁arrive	-11.2375
▁ड्र	-11.2376
ered	-11.238
shed	-11.238
shan	-11.2382
▁irrigation	-11.2384
▁switch	-11.2384
▁टेलीफोन	-11.2384
▁grew	-11.2385
▁कचरा	-11.2385
▁मोटर	-11.2386
▁गिनती	-11.2386
▁permitted	-11.2386
▁judges	-11.2391
िला	-11.2393
▁हटाने	-11.2394
▁fold	-11.2395
▁Iran	-11.2396
▁बताता	-11.2396
ica	-11.2397
▁continuous	-11.2399
थे	-11.2399
▁ti	-11.2405
▁transmission	-11.2406
▁preferred	-11.2406
▁धनराशि	-11.2406
▁प्रतिबद्धता	-11.2407
▁झूठा	-11.2408
▁appoint	-11.2408
▁प्रसारण	-11.2409
yl	-11.2409
▁आदर	-11.2409
▁इतर	-11.241
▁buildings	-11.2411
▁काली	-11.2412
▁criminal	-11.2414
▁offence	-11.2415
▁acting	-11.2416
▁नाक	-11.2418
▁absolute	-11.242
een	-11.2422
▁printer	-11.2422
▁ring	-11.2424
ray	-11.2426
avi	-11.2426
▁प्रचालन	-11.2428
▁barrier	-11.2428
▁disorder	-11.2428
▁liability	-11.2428
▁असामान्य	-11.2429
▁तेरा	-11.2429
▁बनता	-11.2432
▁बर्	-11.2434
▁respond	-11.2435
▁faithless	-11.2436
MS	-11.2446
▁Mi	-11.2446
▁गणित	-11.2447
▁तथ्यों	-11.2447
▁Annual	-11.2449
▁repair	-11.2449
▁नकारात्मक	-11.245
▁परिश्रम	-11.245
▁क्रोध	-11.2451
US	-11.2454
▁Being	-11.2454
▁कीटों	-11.2455
धारा	-11.246
▁देखेंगे	-11.246
बंध	-11.246
परि	-11.2461
▁invite	-11.2463
ैल	-11.2463
▁farmer	-11.2464
रान	-11.2466
▁एयर	-11.2467
▁hu	-11.2468
▁arch	-11.2469
▁Green	-11.2471
▁मुहम्मद	-11.2471
▁Lanka	-11.2471
▁wound	-11.2472
▁flight	-11.2472
▁Center	-11.2472
▁Bu	-11.2473
▁CA	-11.2473
▁traditions	-11.2475
▁suffered	-11.2475
▁Land	-11.2476
ush	-11.2476
▁बेल	-11.2476
्‍त	-11.2479
जिस	-11.2481
ami	-11.2483
▁देनेवाला	-11.2486
▁स्तन	-11.2486
द्य	-11.249
▁conservation	-11.2493
¤¦	-11.2493
▁housing	-11.2493
▁साक्षी	-11.2494
▁साधनों	-11.2495
▁करम	-11.2502
्लो	-11.2503
▁reasonable	-11.2503
rry	-11.2504
▁desired	-11.2506
▁बालों	-11.2506
▁अनुक्रम	-11.2506
ef	-11.2508
िस्तान	-11.2508
PA	-11.2512
eous	-11.2512
उनके	-11.2513
▁काला	-11.2514
▁despair	-11.2515
▁felicitations	-11.2515
▁Value	-11.2515
▁budget	-11.2515
▁diet	-11.2515
box	-11.2516
▁54	-11.2521
▁strengthening	-11.2523
सूर	-11.2528
table	-11.2531
▁सजा	-11.2531
▁उन्हे	-11.2532
▁जीवों	-11.2532
ili	-11.2533
ATION	-11.2536
▁समझना	-11.2536
▁करूँ	-11.2536
श्री	-11.2536
▁ne	-11.2537
▁Companies	-11.2537
▁combination	-11.2537
▁लंदन	-11.2537
¤	-11.2537
▁profile	-11.2537
▁transformation	-11.2539
▁शीर्षिका	-11.254
▁अज्ञान	-11.2541
▁सम्पन्न	-11.2542
▁Manager	-11.2545
▁Mad	-11.2546
▁चंद्र	-11.2546
bra	-11.2554
▁deposits	-11.2554
▁चीज़ें	-11.2555
▁आँखों	-11.2558
▁steadfast	-11.2559
▁सत्यापित	-11.2559
▁solve	-11.2559
▁फरमाया	-11.2561
▁आस्तियों	-11.2562
▁ठहराया	-11.2563
▁६	-11.2566
▁cor	-11.2568
▁शेर	-11.2569
▁दिख	-11.257
▁Mag	-11.2571
▁रोकते	-11.2572
▁forests	-11.2574
िष्	-11.2575
lies	-11.2577
▁अभिभाषण	-11.2581
▁Afghanistan	-11.2581
▁index	-11.2581
▁बालक	-11.2583
▁भक्त	-11.2583
▁दाम	-11.2583
vel	-11.2584
ल्प	-11.2589
▁ver	-11.259
▁pair	-11.259
90	-11.2591
▁Asian	-11.2592
▁meetings	-11.2596
term	-11.2598
▁Second	-11.2598
बहुत	-11.2601
▁split	-11.2603
▁Cabinet	-11.2603
▁incurred	-11.2603
▁नदियों	-11.2603
दूर	-11.2603
▁representation	-11.2605
▁सकल	-11.2609
स्य	-11.2615
has	-11.2616
▁ट्रे	-11.2617
▁(6)	-11.2622
▁परोक्ष	-11.2626
पट्टी	-11.2626
▁वृ	-11.2626
▁मरियम	-11.2627
▁pointed	-11.2627
ग्राफ	-11.2627
▁—	-11.2627
gn	-11.2628
▁आल	-11.2629
▁worldly	-11.263
▁पाये	-11.2631
▁दस्तावेजों	-11.2634
▁सिख	-11.2636
▁linked	-11.2636
▁स्रोतों	-11.2637
ूंगा	-11.2638
▁हज	-11.2643
▁बनना	-11.2646
हू	-11.2647
▁इरादा	-11.2648
▁Jawaharlal	-11.2648
▁armed	-11.2648
▁Sita	-11.265
▁दिखायें	-11.265
▁BAR	-11.2652
▁बाज़ार	-11.2654
▁advised	-11.2654
▁राज़ी	-11.2655
▁कन	-11.2658
▁यहीं	-11.2659
▁अध्यक्षता	-11.266
▁स्वच्छता	-11.2664
प्ल	-11.2664
▁Size	-11.2664
app	-11.2664
गें	-11.2665
▁प्रारम्भ	-11.2668
▁computing	-11.267
▁diversity	-11.267
▁बेटों	-11.267
▁मतभेद	-11.267
▁1957	-11.267
▁अंशदान	-11.2671
▁Knowledge	-11.2672
CH	-11.2672
lation	-11.2672
िग	-11.2674
▁crowd	-11.2674
▁राष्ट्रों	-11.2678
HA	-11.2679
▁बताने	-11.2681
▁spoken	-11.2681
▁delight	-11.2683
८	-11.2688
▁Houses	-11.2688
▁काले	-11.2689
▁जाया	-11.2689
▁स्तरीय	-11.2691
▁महत्त्व	-11.2691
▁गवर्नर	-11.2692
▁दार्शनिक	-11.2692
▁update	-11.2692
▁Nav	-11.2693
▁collaboration	-11.2694
▁vegetables	-11.2698
▁cloud	-11.27
▁तबाही	-11.2701
▁झा	-11.2702
▁नारायण	-11.2704
▁बचने	-11.2705
▁helper	-11.2706
▁Election	-11.2715
▁naught	-11.2715
▁ensur	-11.2715
▁कार्यान्वित	-11.2716
▁stamp	-11.2717
▁आतंकवादी	-11.2717
▁warned	-11.2718
▁पौ	-11.272
▁Kal	-11.2726
list	-11.2728
▁grand	-11.2728
▁बिन	-11.2728
▁चैन	-11.273
mate	-11.2734
▁consumption	-11.2737
▁remembrance	-11.2737
▁terminal	-11.2738
▁grass	-11.2738
▁प्रतिलिपि	-11.2739
▁सूरज	-11.2739
▁उद	-11.274
▁याचिका	-11.274
गुण	-11.274
ण्ट	-11.2741
▁व्यापारिक	-11.2741
▁Earth	-11.2741
▁पुरूष	-11.2743
लिक	-11.2743
▁constructed	-11.2744
▁साझेदारी	-11.2745
▁पं	-11.2746
ky	-11.2747
are	-11.2747
▁संचित	-11.2748
can	-11.275
▁लाएँ	-11.2754
ane	-11.2756
▁नायक	-11.2757
▁Way	-11.2758
hir	-11.2758
▁disgrace	-11.2759
▁excellence	-11.2759
¤1⁄4	-11.2759
▁baby	-11.276
▁tender	-11.276
▁निर	-11.2761
▁कृतज्ञता	-11.2762
▁struck	-11.2763
▁fa	-11.2764
▁roll	-11.2764
ठा	-11.2766
▁एव	-11.2768
▁अपनाई	-11.2769
▁गज	-11.2769
▁वार	-11.2769
सूची	-11.277
प्रद	-11.277
▁उड़ान	-11.2771
एँगे	-11.2772
▁raw	-11.2774
ora	-11.2774
▁goals	-11.2776
▁डरता	-11.2777
▁improved	-11.2779
hari	-11.278
OS	-11.2782
▁legislation	-11.2782
▁लाइब्रेरी	-11.2782
▁boat	-11.2782
▁Road	-11.2784
पास	-11.2784
अपना	-11.2784
▁आईटी	-11.2786
▁अधिकृत	-11.2786
dle	-11.2787
▁ab	-11.2788
▁Member	-11.279
▁qu	-11.2791
▁interested	-11.2795
▁participate	-11.2795
▁दादा	-11.2798
दल	-11.2798
▁आयकर	-11.2799
▁presentation	-11.28
▁07	-11.2802
▁represent	-11.2803
reg	-11.2804
▁Spirit	-11.2805
▁determination	-11.2805
▁उत्तरदायित्व	-11.2805
▁प्रभावशाली	-11.2805
▁संक्रिया	-11.2806
▁डाक्टर	-11.2806
▁Order	-11.2807
रंग	-11.2807
▁Aware	-11.281
▁Whatever	-11.281
▁ईंट	-11.281
▁खिला	-11.2812
▁college	-11.2814
▁relatives	-11.2814
▁परा	-11.2816
part	-11.2818
म्भ	-11.2822
▁कार्यकारी	-11.2822
▁fluid	-11.2828
▁प्रवर्तन	-11.2829
▁Sector	-11.2829
▁Capital	-11.2831
gricultural	-11.2832
▁identify	-11.2832
▁Fort	-11.2835
▁मानकों	-11.2836
▁attachment	-11.2837
▁पड़ते	-11.2839
▁def	-11.2841
▁फ्रांस	-11.2842
adi	-11.2845
▁फसलों	-11.2845
▁march	-11.2846
▁स्मारक	-11.2846
▁वनस्पति	-11.2849
▁10.	-11.2849
▁conclusion	-11.285
▁दुर्लभ	-11.285
▁देह	-11.285
▁धोखे	-11.285
▁फौज	-11.285
िकल	-11.2851
77	-11.2851
▁Author	-11.2851
▁पाओगे	-11.2853
▁Level	-11.2853
▁Back	-11.2854
▁रहित	-11.2856
▁ख़ौफ	-11.2857
लिस	-11.2857
▁लीग	-11.2857
हरे	-11.2863
िटी	-11.2869
▁जानना	-11.2872
चु	-11.2873
▁remarkable	-11.2873
▁submission	-11.2874
▁परंपरागत	-11.2874
▁पिछला	-11.2875
▁नाते	-11.288
▁thank	-11.288
मण्डल	-11.2881
▁कार्यालयों	-11.2881
ूँगा	-11.2882
▁पर्व	-11.2882
▁ruin	-11.2882
म्म	-11.2883
ero	-11.2884
▁vain	-11.2885
▁contributed	-11.2886
फ़र	-11.2887
▁Indo	-11.2889
link	-11.2889
हाँ	-11.289
▁alternative	-11.2895
▁removal	-11.2895
▁पचास	-11.2896
▁एक्सचेंज	-11.2896
▁इंग्लैंड	-11.2896
▁productivity	-11.2896
▁बाक़ी	-11.2896
ock	-11.2896
▁dawn	-11.2897
▁integrated	-11.2897
▁कमाई	-11.2898
▁pot	-11.2899
▁Plugin	-11.2899
▁बडे	-11.29
डु	-11.2903
ोड	-11.2903
▁Dev	-11.2903
▁scene	-11.2905
▁pick	-11.2908
मै	-11.2908
▁poetic	-11.2911
▁नमूना	-11.2918
▁गुणा	-11.2922
▁ज़िक्र	-11.2925
▁संतान	-11.2926
▁Christian	-11.2927
▁ट्र	-11.2927
▁इराक	-11.2929
▁परिवर्तनों	-11.2931
▁रूपों	-11.2931
यम	-11.2938
▁None	-11.2938
▁Screen	-11.2941
▁सौंदर्य	-11.2941
▁silver	-11.2941
▁harmony	-11.2941
▁Gi	-11.2941
▁भुला	-11.2944
▁usage	-11.2944
rb	-11.2945
▁लगाकर	-11.2948
ोक	-11.295
▁5,	-11.295
▁बताते	-11.2954
ाज	-11.2954
वालो	-11.2956
▁सैनिकों	-11.2956
ग्राम	-11.2957
ction	-11.2958
To	-11.2958
▁aught	-11.2958
▁नौका	-11.2964
▁occupation	-11.2964
▁एजेंसियों	-11.2964
▁तीर्थ	-11.2964
▁पीछा	-11.2965
▁आएँ	-11.2965
▁Accounts	-11.2967
▁devices	-11.2967
अत	-11.2968
▁पीड़ा	-11.2969
▁investments	-11.2971
▁believes	-11.2973
▁onto	-11.2974
▁04	-11.2974
▁पैनल	-11.2975
▁spring	-11.2975
▁discussions	-11.2976
ड़ों	-11.2977
▁stored	-11.2978
▁लॉ	-11.298
▁पाना	-11.2982
lig	-11.2982
▁12.	-11.2984
▁RE	-11.2986
▁quantity	-11.2987
▁securities	-11.2987
▁आयुर्वेद	-11.2987
▁पाकीज़ा	-11.2987
▁ends	-11.2987
▁श्रद्धा	-11.2987
▁भागीदार	-11.2988
hra	-11.2989
ku	-11.299
▁David	-11.299
▁pound	-11.2991
▁via	-11.2993
▁exit	-11.2995
▁ग्रह	-11.3001
▁कोर्ट	-11.3004
▁sites	-11.3005
▁सूरत	-11.3006
▁row	-11.3007
▁प्रतिवादी	-11.3008
▁उड़ीसा	-11.301
▁personnel	-11.301
▁regulations	-11.301
▁visual	-11.301
▁अवसंरचना	-11.301
▁duration	-11.301
▁आवरण	-11.301
▁आंकड़े	-11.3011
▁प्राधिकार	-11.3012
▁talking	-11.3014
▁डीवीडी	-11.3014
रोध	-11.3014
▁एं	-11.3014
▁सै	-11.3016
▁touched	-11.3017
▁ocean	-11.3021
▁उत्पादकता	-11.3023
▁वस्तुएं	-11.3023
▁humble	-11.3024
▁fulfil	-11.3026
▁पहुँची	-11.3027
▁Place	-11.3027
▁तीस	-11.3031
95	-11.3031
▁बजा	-11.3033
▁shelter	-11.3033
,–	-11.3034
▁1976	-11.3034
dia	-11.3035
▁गुट	-11.3035
▁प्रजा	-11.3035
▁Tourism	-11.3036
▁disabled	-11.3039
▁फूट	-11.3045
▁label	-11.3045
लेख	-11.3048
pat	-11.3049
▁प्रवृत्त	-11.3052
book	-11.3053
train	-11.3054
▁wicked	-11.3055
500	-11.3055
▁Ibrahim	-11.3056
▁injustice	-11.3056
▁partition	-11.3056
mor	-11.3058
▁दूँ	-11.3059
▁Parliamentary	-11.3061
▁requested	-11.3065
▁mixed	-11.3068
▁बीविय	-11.3069
▁invoke	-11.307
ेक्स	-11.3072
▁ki	-11.3076
▁comfort	-11.3077
▁Photo	-11.3078
é	-11.3079
▁निचले	-11.3079
▁विज्ञापन	-11.3079
▁cried	-11.308
▁grave	-11.3081
▁Banks	-11.3081
▁Brahma	-11.3082
▁Font	-11.3083
▁ठहर	-11.3084
▁चाहो	-11.3087
्ते	-11.3087
▁meal	-11.3089
▁बीत	-11.3089
ग्रह	-11.3089
▁starts	-11.3091
▁लक्ष्यों	-11.3091
‍	-11.3092
▁millions	-11.3092
▁नकल	-11.3096
▁upto	-11.3099
▁64	-11.3099
पाद	-11.3101
▁bath	-11.3102
▁Ambedkar	-11.3103
▁ni	-11.3103
▁innovative	-11.3103
▁प्रवासी	-11.3103
▁अनिवासी	-11.3103
▁भाइयों	-11.3103
▁वार्ता	-11.3103
▁अपेक्षाकृत	-11.3104
▁भग	-11.3105
▁अटल	-11.3106
▁संयोजन	-11.3107
▁फॉर	-11.3108
ेन्द्र	-11.3108
▁trans	-11.3111
PC	-11.3112
CA	-11.3112
▁क़रार	-11.3112
▁meat	-11.3113
▁prophet	-11.3115
्दी	-11.3115
▁क्रय	-11.3115
▁prison	-11.3119
▁ta	-11.3119
▁केंद्रों	-11.3121
bhu	-11.3122
▁complaint	-11.3122
▁tag	-11.3123
▁पंजाबी	-11.3123
ीक	-11.3125
▁GNOME	-11.3126
▁मनपसंद	-11.3126
nda	-11.3126
▁आकर्षण	-11.3127
▁doom	-11.3128
▁मान्य	-11.3128
▁gradually	-11.3128
▁प्रावधानों	-11.313
▁eastern	-11.313
आईसी	-11.313
▁transform	-11.3134
long	-11.3137
▁elephant	-11.3138
▁decade	-11.314
▁marks	-11.3141
64	-11.3146
cast	-11.3148
▁इजाज़त	-11.3149
▁व्युत्पन्न	-11.3149
▁पहलुओं	-11.315
▁उपलब्धियों	-11.3153
▁जंग	-11.3154
▁पूछते	-11.3155
धन	-11.3161
▁कालेज	-11.3163
▁क़ा	-11.3163
ira	-11.3164
▁realize	-11.3165
▁realise	-11.3165
▁दीर्घ	-11.3166
▁मिलना	-11.3167
volving	-11.3171
▁multiply	-11.3173
▁strategic	-11.3173
▁voluntary	-11.3173
del	-11.3173
▁बम	-11.3173
▁mar	-11.3173
▁स्कूलों	-11.3174
▁older	-11.3174
▁पूर्णता	-11.3178
▁mad	-11.3178
▁solid	-11.3179
ाकर	-11.3183
SC	-11.3183
vol	-11.3185
▁भावनाओं	-11.3185
णी	-11.3187
बन्ध	-11.3188
▁director	-11.3188
विचार	-11.3192
▁Egypt	-11.3193
▁ignorance	-11.3196
▁universe	-11.3196
▁अकादमी	-11.3196
▁इन्हीं	-11.3196
▁cheque	-11.3197
san	-11.3197
▁bug	-11.3198
▁herself	-11.3199
▁breasts	-11.32
tta	-11.3201
▁driver	-11.3203
▁manufacture	-11.3206
atory	-11.3208
▁Sad	-11.3208
▁z	-11.321
itation	-11.321
▁उद्यमों	-11.3212
▁विकासशील	-11.3214
net	-11.3215
▁trained	-11.3215
▁street	-11.3216
▁Through	-11.322
▁अंडे	-11.322
▁Anjuta	-11.322
▁satisfaction	-11.322
▁yellow	-11.322
▁संगणक	-11.322
▁महासागर	-11.322
▁1971	-11.322
कै	-11.3222
▁लाखों	-11.3225
▁righteousness	-11.3226
▁चढ़ा	-11.3228
▁External	-11.3228
▁corner	-11.3231
▁गौरव	-11.3232
▁pledge	-11.3234
हरा	-11.3235
▁tar	-11.3237
▁chi	-11.3239
▁मानने	-11.3241
ेंद्र	-11.3242
▁Chaitanya	-11.3243
▁कानूनों	-11.3244
▁मतदान	-11.3246
▁अनन्त	-11.3246
▁कुर	-11.3246
▁degrees	-11.3249
▁चलना	-11.3252
▁जिलों	-11.3252
▁शिक्षित	-11.3253
▁forty	-11.3253
▁lit	-11.3254
▁rear	-11.3261
MA	-11.3264
▁बेहिश्त	-11.3266
▁ज़िम्मे	-11.3266
ैक्ट	-11.3267
▁rid	-11.3267
▁ऑफ़लाइन	-11.3267
▁Prasad	-11.3267
▁arrangements	-11.327
AYS	-11.327
▁शर्तें	-11.3272
▁founded	-11.3272
▁happening	-11.3274
▁पढ़ते	-11.3274
▁घन	-11.3277
▁str	-11.3278
▁गर्भ	-11.3278
▁rapid	-11.3284
मह	-11.3287
▁anger	-11.3289
▁इंदिरा	-11.3291
▁haply	-11.3291
▁unseen	-11.3291
▁Child	-11.3291
▁दीक्षांत	-11.3291
TI	-11.3291
▁1974	-11.3291
▁पहुँचने	-11.3292
ल्ला	-11.3292
/-	-11.3292
▁widely	-11.3293
हमारी	-11.3293
lia	-11.3293
▁Zone	-11.3294
▁determine	-11.3295
लम्ब	-11.3295
▁mal	-11.3297
▁जगत	-11.3298
than	-11.3299
▁Apart	-11.3301
क्यू	-11.3302
stan	-11.3303
▁manage	-11.3303
▁saving	-11.3304
▁guarantee	-11.3305
ugh	-11.3306
क्टर	-11.3309
▁कस	-11.3312
▁Himachal	-11.3315
▁परिचालन	-11.3315
▁मद्रास	-11.3315
▁मुकदमा	-11.3315
▁1989	-11.3315
▁खिलाड़ी	-11.3315
▁silk	-11.3315
mark	-11.3316
▁पूर्णतः	-11.3318
lid	-11.3319
hin	-11.3319
ाध	-11.332
TS	-11.3321
▁शाखाओं	-11.3321
had	-11.3324
oma	-11.3326
▁directions	-11.3326
▁Mohan	-11.3328
▁enterprise	-11.3328
▁practical	-11.3331
ारा	-11.3331
▁claimed	-11.3333
how	-11.3333
▁falls	-11.3334
▁organisations	-11.3336
▁Peace	-11.3338
▁dialog	-11.3338
▁चमत्कार	-11.3338
▁यातायात	-11.3338
यक	-11.3339
▁sake	-11.3339
▁stopped	-11.3339
खुदा	-11.3341
▁terror	-11.3343
CR	-11.3344
▁liars	-11.3347
▁परेशान	-11.3347
ically	-11.3349
टि	-11.335
▁relative	-11.335
▁आस्था	-11.3353
▁implement	-11.3353
yam	-11.3353
LO	-11.3358
▁demands	-11.3358
▁park	-11.3359
▁(10	-11.3359
▁गिरा	-11.3359
▁constitutional	-11.3359
▁familiar	-11.3362
▁valuable	-11.3362
▁आजीविका	-11.3362
▁कृत्रिम	-11.3362
▁पब्लिक	-11.3362
▁केडीई	-11.3362
▁मिट	-11.3364
▁minor	-11.3364
▁difficulties	-11.3364
▁KDE	-11.3364
दृष्टि	-11.3364
▁पादप	-11.3364
▁नमक	-11.3365
्ला	-11.3366
▁Cell	-11.3367
ost	-11.3367
▁ordered	-11.3368
▁सावधानी	-11.3369
श्र	-11.3369
▁11.	-11.3371
▁विफलः	-11.3374
▁oath	-11.3378
▁subscribe	-11.3378
कू	-11.3378
ीले	-11.3381
▁गलती	-11.3381
run	-11.3385
▁दिखाना	-11.3385
▁अतएव	-11.3386
▁मरम्मत	-11.3386
▁Left	-11.3387
▁मौका	-11.3388
▁धान	-11.3389
▁सुधारों	-11.339
▁notified	-11.3391
▁des	-11.3394
uda	-11.3399
▁विदेशों	-11.34
▁mechanism	-11.3401
▁उत्कृष्टता	-11.3402
▁उड़ा	-11.3403
even	-11.3403
▁extreme	-11.3403
▁Committees	-11.3408
▁assembly	-11.341
▁Pur	-11.341
▁axis	-11.3411
▁Prof	-11.3412
▁लोकसभा	-11.3413
▁equals	-11.3413
▁minute	-11.3414
▁मुख्यतः	-11.3415
▁Subscriber	-11.3415
▁परवाह	-11.3415
▁बल्लेबाज	-11.3416
▁माफ़	-11.342
▁Jain	-11.3421
▁46	-11.3426
struct	-11.3427
▁जरूर	-11.3428
▁dam	-11.3429
DI	-11.343
ानु	-11.3434
▁White	-11.3434
▁offspring	-11.3434
▁producing	-11.3434
▁कुबूल	-11.3434
▁प्रणालियों	-11.3434
▁Madras	-11.3434
▁बहुमत	-11.3435
▁शादी	-11.3436
▁पड़ने	-11.3436
रात	-11.3437
▁Thank	-11.3437
▁फ़ाइलों	-11.3437
▁allows	-11.3438
▁photo	-11.3438
▁हमला	-11.3441
▁Sat	-11.3442
▁viz	-11.3442
▁इंजीनियरी	-11.3443
▁ज़ि	-11.3443
▁हँसी	-11.3444
▁नाना	-11.3447
▁खाल	-11.3447
ूक	-11.3449
era	-11.345
▁monitoring	-11.3451
▁substantial	-11.3451
▁नरम	-11.3453
चाल	-11.3453
ories	-11.3454
IA	-11.3454
▁अवधारणा	-11.3455
▁कार्बन	-11.3456
.“	-11.3457
▁Universities	-11.3458
▁admonition	-11.3458
▁shadow	-11.3458
▁कैंसर	-11.3458
▁प्रशासक	-11.3458
▁Ramayana	-11.3459
TE	-11.3459
▁खातों	-11.3459
▁प्राणी	-11.346
sur	-11.3462
32	-11.3463
▁investors	-11.3466
▁strange	-11.3469
▁देवताओं	-11.3471
▁structures	-11.3471
▁रजिस्टर	-11.3471
▁mistake	-11.3474
▁समर्थक	-11.3475
rup	-11.3476
▁writings	-11.3478
▁ऊतक	-11.348
ताकि	-11.3482
▁departments	-11.3482
▁Mercy	-11.3482
▁anniversary	-11.3482
▁biggest	-11.3482
▁browser	-11.3482
▁indigenous	-11.3482
▁सितम्बर	-11.3482
▁सृजित	-11.3482
▁Meeting	-11.3482
▁इस्पात	-11.3482
▁ख्वाहिश	-11.3483
▁lesson	-11.3484
▁मोहन	-11.3484
▁2014)	-11.3487
▁लाभों	-11.3488
▁interaction	-11.3489
▁सिल	-11.3489
▁prefer	-11.349
66	-11.3492
▁planet	-11.3492
▁sta	-11.3496
हट	-11.3498
▁Hand	-11.3499
▁printed	-11.35
▁handle	-11.3505
▁Details	-11.3507
▁flesh	-11.3507
▁categories	-11.3507
▁चाहूंगा	-11.3507
▁समर्पण	-11.3507
most	-11.3507
▁lord	-11.3508
▁NPS	-11.3508
▁consultation	-11.3508
▁शान्ति	-11.3508
▁ऊँचाई	-11.3509
▁cla	-11.3509
▁विडियो	-11.351
▁कवियों	-11.3511
”,	-11.3512
▁करनेवाली	-11.3512
▁निकाह	-11.3512
▁मित्रता	-11.3516
hat	-11.3516
▁जरूरतों	-11.3517
▁Ge	-11.3523
▁अहम	-11.3528
IF	-11.3528
▁स्थितियों	-11.3528
▁afford	-11.3529
▁वरीयता	-11.353
▁pardon	-11.3531
▁पेशेवर	-11.3531
▁सारणी	-11.3531
▁usual	-11.3532
▁idols	-11.3532
पना	-11.3533
▁needy	-11.3534
▁recovery	-11.3534
वश	-11.3535
▁प्रतिज्ञा	-11.354
▁claims	-11.354
▁वास	-11.3541
ध्या	-11.3543
हाल	-11.3545
They	-11.3547
▁sets	-11.3548
ारी	-11.3553
▁leaf	-11.3553
▁Good	-11.3553
▁रोम	-11.3554
46	-11.3555
▁Additional	-11.3555
▁accompanied	-11.3555
▁accurate	-11.3555
▁वितरित	-11.3555
▁संकलन	-11.3555
▁लम्बी	-11.3555
▁Subject	-11.3556
▁तनाव	-11.3556
▁1970	-11.3556
▁devoted	-11.3558
▁deities	-11.3559
▁स्ट्र	-11.3559
action	-11.3559
▁sanction	-11.3566
डिया	-11.3566
महा	-11.3568
▁Sh	-11.3573
▁Col	-11.3574
▁expand	-11.3574
▁effectively	-11.3578
▁undertake	-11.3579
▁प्रतिरोध	-11.3579
▁League	-11.358
▁निवारण	-11.358
▁worse	-11.358
▁बगैर	-11.358
▁1949	-11.358
65	-11.3581
sy	-11.3581
dev	-11.3582
▁ची	-11.3583
▁ओपन	-11.3584
▁49	-11.3584
▁Read	-11.3585
▁Point	-11.359
▁अंग्रेज़ी	-11.359
▁mor	-11.3593
▁recommendations	-11.3593
▁पत्रों	-11.3594
▁मील	-11.3594
▁regime	-11.3597
▁peoples	-11.3597
▁petition	-11.3597
▁occurs	-11.3597
▁हिला	-11.3599
▁ran	-11.3599
▁72	-11.36
▁egg	-11.3601
▁streams	-11.3603
▁Exalted	-11.3604
▁Innovation	-11.3604
▁inclusive	-11.3604
▁southern	-11.3604
▁glass	-11.3604
▁spell	-11.3605
▁1972	-11.3605
▁courses	-11.3606
▁outcome	-11.3606
▁awarded	-11.3607
ैक	-11.3608
▁Online	-11.361
▁progressive	-11.361
▁छुट्टी	-11.3612
नू	-11.3613
डल	-11.3615
▁ठहरे	-11.3618
▁सुनाई	-11.3619
▁वॉ	-11.3619
▁पाठक	-11.3622
▁वजन	-11.3623
ily	-11.3623
east	-11.3624
▁हिल	-11.3625
▁greatly	-11.3625
▁संकल्पना	-11.3625
▁लाएँगे	-11.3626
नेवालों	-11.3627
धि	-11.3628
▁faculty	-11.3629
▁throne	-11.3629
▁Vedic	-11.3629
▁Kingdom	-11.3629
▁Issue	-11.3629
न्त्र	-11.3631
▁85	-11.3631
▁10,	-11.3632
▁Wa	-11.3632
संघ	-11.3634
▁boys	-11.3635
▁eve	-11.3635
▁सच्चाई	-11.3635
▁06	-11.3637
tru	-11.3637
▁resolve	-11.364
धान	-11.3641
▁operate	-11.3644
सभा	-11.3645
▁कराई	-11.3646
▁(*	-11.3648
▁मोहम्मद	-11.3652
▁अफगानिस्तान	-11.3653
जिन	-11.3653
▁conversation	-11.3654
▁प्रदत्त	-11.3654
ras	-11.3654
▁rose	-11.3655
पल	-11.3656
▁दू	-11.3657
wal	-11.3658
▁subjected	-11.366
▁सद	-11.3665
▁Maharaja	-11.3666
hri	-11.3669
ूत	-11.367
UL	-11.3675
्च	-11.3677
▁Access	-11.3677
▁Executive	-11.3678
¤	-11.3678
▁nerve	-11.3678
▁sharing	-11.3678
▁wrath	-11.3678
▁नवाचार	-11.3678
जीवन	-11.3679
▁drum	-11.368
▁मौजिज़े	-11.3681
▁Audio	-11.3681
▁उपदेश	-11.3681
asi	-11.3681
फो	-11.3683
▁अवरोध	-11.3689
’’	-11.3689
▁slay	-11.3694
ल्फ	-11.3694
eb	-11.3694
▁adopt	-11.3694
▁killing	-11.3694
▁वसा	-11.3695
▁बनाओ	-11.3696
des	-11.3698
42	-11.3698
▁addresses	-11.3699
▁बादल	-11.3699
▁काफिर	-11.37
▁pit	-11.3701
▁उभार	-11.3702
ीत	-11.3702
▁ceremony	-11.3702
▁emerging	-11.3702
▁रिज़र्व	-11.3702
▁York	-11.3702
▁पॉ	-11.3703
▁तीसरी	-11.3704
िमा	-11.3705
▁39	-11.3705
▁घूम	-11.3705
house	-11.3706
▁चिन्ह	-11.3707
▁सकने	-11.3708
▁शक्तियां	-11.3708
ाधीन	-11.3709
▁उपाधि	-11.3709
बस	-11.3709
▁terrorist	-11.3714
▁56	-11.3714
▁plane	-11.3716
▁Lot	-11.3716
▁imagine	-11.3718
▁Disc	-11.3722
क्ट	-11.3725
▁cotton	-11.3727
▁infinite	-11.3727
▁रखरखाव	-11.3727
▁हुये	-11.373
74	-11.3731
▁एशियाई	-11.3734
▁programs	-11.3734
▁धूप	-11.3735
▁Full	-11.3736
▁फे	-11.3736
▁सुनकर	-11.3747
gam	-11.375
▁bid	-11.375
▁Region	-11.3751
थी	-11.3752
▁Binoy	-11.3752
▁लम्बे	-11.3753
▁राजमार्ग	-11.3753
▁deaf	-11.3753
ome	-11.3754
▁गोरा	-11.3755
▁Perhaps	-11.3755
▁reader	-11.3755
▁dynamic	-11.3757
awn	-11.3758
▁घटित	-11.3758
ksha	-11.3758
CO	-11.376
38	-11.3761
head	-11.3762
NS	-11.3762
til	-11.3767
▁preserve	-11.3768
▁weapons	-11.3772
▁निर्गम	-11.3774
▁धा	-11.3774
▁कराता	-11.3775
oy	-11.3775
▁operative	-11.3776
▁receiving	-11.3777
▁ungrateful	-11.3777
▁हिस्सों	-11.3777
¤«	-11.3777
▁technological	-11.3777
▁कबीर	-11.3778
▁हर्ष	-11.3778
▁मणिपुर	-11.3779
▁educated	-11.378
▁रखनेवालों	-11.3781
▁600	-11.3782
▁Hide	-11.3783
थर	-11.3788
▁jobs	-11.379
▁Dh	-11.3792
▁हाउस	-11.3793
”;	-11.3793
73	-11.3794
67	-11.3795
भिन्न	-11.3797
▁संतुष्ट	-11.3799
▁IIT	-11.38
▁मौ	-11.3802
▁Session	-11.3802
▁deserve	-11.3802
▁pu	-11.3804
▁competent	-11.3805
▁लगने	-11.3808
▁हमपर	-11.381
read	-11.3811
▁(23	-11.3812
MP	-11.3812
▁मोहल	-11.3815
▁चोरी	-11.3816
▁node	-11.3817
▁अगरचे	-11.3817
78	-11.3818
▁बचे	-11.3819
▁दौरा	-11.382
weather	-11.3822
▁dreams	-11.3822
▁insect	-11.3824
▁protocol	-11.3827
▁सृष्टि	-11.3827
▁प्लगिन	-11.3827
▁acceptance	-11.3829
▁अन्तर्	-11.3829
▁तालाब	-11.3834
▁tank	-11.3834
iti	-11.3836
lon	-11.3838
▁celebrate	-11.3843
▁दलों	-11.3844
▁algorithm	-11.3847
▁attended	-11.3847
मेन	-11.3849
▁proxy	-11.3852
▁triumph	-11.3852
▁rulers	-11.3852
▁उम्मत	-11.3852
▁डोमेन	-11.3852
▁वस्तुतः	-11.3855
pot	-11.3856
ांतर	-11.3859
हृ	-11.3861
▁बेकार	-11.3863
▁क्यू	-11.3865
उसका	-11.3865
▁ढाल	-11.3867
▁उज	-11.3867
▁41	-11.3871
▁Russia	-11.3872
▁org	-11.3876
▁equivalent	-11.3877
▁अवकाश	-11.3877
▁criticism	-11.3878
▁आर्य	-11.3879
▁weakness	-11.388
▁Certainly	-11.3881
▁reckoning	-11.3881
▁classical	-11.3883
▁Goa	-11.3884
▁App	-11.3887
▁distress	-11.3889
▁Cr	-11.3889
hr	-11.3893
▁testing	-11.3895
▁Mac	-11.3896
▁mailing	-11.3899
▁शैल	-11.3899
▁comment	-11.39
▁ignorant	-11.3902
▁northern	-11.3902
▁planned	-11.3903
▁अनुचित	-11.3903
त्री	-11.3904
वर्ड	-11.3905
▁वैसी	-11.3907
▁Said	-11.3909
CP	-11.391
ric	-11.3911
▁windows	-11.3911
▁आंक	-11.3912
▁वाणी	-11.3912
▁कविताओं	-11.3913
िब	-11.3913
▁finds	-11.3918
▁encouraged	-11.3918
ँच	-11.3919
क़त	-11.392
▁Railway	-11.3922
kal	-11.3924
▁tremendous	-11.3927
▁कतिपय	-11.3927
▁नाट्य	-11.3927
▁फूँक	-11.3928
ुम	-11.393
▁Cap	-11.393
▁Ye	-11.393
▁Sikh	-11.3932
▁backward	-11.3932
▁सिं	-11.3933
▁मुड़	-11.3934
▁alarm	-11.3934
▁संवेदनशील	-11.3938
ाधिकार	-11.3938
न्दा	-11.394
▁authorised	-11.3941
▁पते	-11.3942
▁sports	-11.3943
▁नो	-11.3943
▁Nagar	-11.3944
cious	-11.3945
▁स्टे	-11.3945
बाद	-11.3945
▁दत्त	-11.3945
▁owned	-11.3946
▁Task	-11.3948
▁किमी	-11.3948
▁सल	-11.3949
NG	-11.3951
▁शिष्य	-11.3953
▁components	-11.3955
▁दीवारों	-11.3959
▁फौरन	-11.3959
ापन	-11.396
▁monitor	-11.3961
▁Custom	-11.3964
▁pal	-11.3964
▁defeat	-11.3964
▁pillars	-11.3966
▁stress	-11.3975
atic	-11.3976
्यता	-11.3978
सेट	-11.3978
▁corporation	-11.3978
▁eminent	-11.3978
▁testimony	-11.3978
▁मेमोरी	-11.3978
▁preference	-11.3979
▁achievements	-11.3979
▁सामान्यतया	-11.398
▁बांग्लादेश	-11.3981
़ा	-11.3982
▁बडा	-11.3982
ठी	-11.3984
यार	-11.3984
▁आखिर	-11.3984
▁merit	-11.3985
▁सेंटर	-11.3986
▁स्पर्श	-11.3987
बंद	-11.3987
▁Working	-11.3988
वर्त	-11.3988
▁Selection	-11.3989
▁डालो	-11.399
▁गाड़ी	-11.3991
▁lu	-11.3993
▁cat	-11.3993
?'	-11.3995
▁listed	-11.3996
▁१०	-11.4
ancy	-11.4002
▁collect	-11.4003
▁yesterday	-11.4004
▁खतरनाक	-11.4004
ळ	-11.4004
▁resort	-11.4004
▁Hence	-11.4005
▁माननीय	-11.4006
▁significance	-11.4007
▁प्राप्तकर्ता	-11.4009
vid	-11.401
▁250	-11.401
▁snow	-11.4014
▁semi	-11.4015
▁closely	-11.4016
▁खिल	-11.402
▁समावेश	-11.402
▁Does	-11.4022
▁beside	-11.4023
kin	-11.4024
ईमान	-11.4025
▁roots	-11.4025
▁Benefit	-11.4029
▁injury	-11.4029
▁IMAP	-11.4029
▁हैसियत	-11.4029
▁शुरूआत	-11.4029
kan	-11.403
▁mill	-11.403
▁Prem	-11.4033
▁दिखाए	-11.4035
▁रूपरेखा	-11.4037
▁discover	-11.4038
▁falling	-11.4038
▁तरल	-11.4039
▁fly	-11.4039
▁covers	-11.404
क्यों	-11.4041
▁refuse	-11.4045
▁Rights	-11.4046
▁विश्वसनीय	-11.4046
rap	-11.4047
िष्ट	-11.4048
pre	-11.4049
कहीं	-11.405
▁package	-11.4051
▁bearing	-11.4052
▁permit	-11.4054
▁abundant	-11.4055
▁fifteen	-11.4055
▁प्रॉक्सी	-11.4055
▁आज़ाद	-11.4055
▁कोयला	-11.4055
▁internet	-11.4055
▁प्रशिक्षित	-11.4055
▁Location	-11.4055
optional	-11.4056
jo	-11.4058
▁डो	-11.4058
▁controlled	-11.4058
▁CH	-11.4059
ंडर	-11.4059
▁Ten	-11.4062
iving	-11.4063
▁seeks	-11.4065
▁topic	-11.4066
▁सिर्फ़	-11.4067
▁विश	-11.4068
tem	-11.4073
▁German	-11.4076
▁खोजें	-11.4077
▁बक	-11.4077
लिखित	-11.4078
▁सुनी	-11.4078
▁III	-11.4078
▁इलाकों	-11.4081
▁missing	-11.4081
▁संजाल	-11.4081
▁स्ट्रिंग	-11.4082
र्ष	-11.4083
▁मश	-11.4084
▁dependent	-11.4085
▁रूह	-11.4086
100	-11.4086
▁catch	-11.4086
who	-11.4088
पान	-11.4091
▁गीता	-11.4091
सक	-11.4094
▁increases	-11.4099
▁मरने	-11.41
rc	-11.41
▁vehicle	-11.4102
अच्छे	-11.4102
▁representatives	-11.4102
▁जाग	-11.4102
दीन	-11.4103
वस्तु	-11.4104
▁specially	-11.4105
▁ending	-11.4105
▁royal	-11.4105
▁"{0}"	-11.4106
▁रंगमंच	-11.4106
▁silent	-11.4106
▁tour	-11.4107
▁1946	-11.4107
▁Koran	-11.4107
▁mothers	-11.4109
▁राजपत्र	-11.4109
▁वैयक्तिक	-11.4111
ख्या	-11.4111
anta	-11.4114
ind	-11.4116
▁क्ष	-11.4116
सह	-11.4119
▁पहाड़ों	-11.4119
▁कलाम	-11.4123
▁subsequent	-11.4125
▁AD	-11.4127
दर्शन	-11.4127
▁George	-11.4132
▁नाबार्ड	-11.4132
▁Again	-11.4132
▁शपथ	-11.4132
▁पक्का	-11.4133
▁अनुशासन	-11.4133
▁बाढ़	-11.4134
▁sales	-11.4134
arian	-11.4135
point	-11.4137
▁पशुओं	-11.4138
▁कर्ज	-11.4139
▁रहीं	-11.4141
▁घोष	-11.4142
संदत्त	-11.4142
कालीन	-11.4145
▁रूपये	-11.4146
▁wave	-11.4148
▁घेरे	-11.4148
▁sudden	-11.4151
▁threat	-11.4153
▁तन	-11.4154
तया	-11.4156
▁शासित	-11.4157
▁module	-11.4158
▁smooth	-11.4158
▁photograph	-11.4158
▁व्यर्थ	-11.4158
▁min	-11.416
▁entrusted	-11.4161
▁होस्ट	-11.4162
▁carbon	-11.4163
tract	-11.4167
.–	-11.4168
▁""	-11.4168
▁oaths	-11.4168
ाली	-11.417
▁घाटा	-11.4172
▁चखो	-11.4173
▁News	-11.4174
▁breast	-11.418
▁exceeding	-11.418
▁सौभाग्य	-11.4183
▁त्वरित	-11.4184
▁मुकदमे	-11.4184
▁कथित	-11.4184
▁ordained	-11.4186
खी	-11.4191
▁pleases	-11.4191
▁invest	-11.4191
▁managed	-11.4194
▁wholly	-11.4194
▁बरसात	-11.4194
▁फै	-11.4194
विध	-11.4199
▁proceed	-11.4201
▁निवेशकों	-11.4203
▁गयीं	-11.4204
हमने	-11.4208
▁audience	-11.421
▁बंबई	-11.421
▁Medical	-11.421
▁fate	-11.421
▁इलेक्ट्रॉनिक	-11.421
▁समकालीन	-11.421
▁सफाई	-11.421
क़ी	-11.4211
बन्द	-11.4212
▁DAY	-11.4213
झा	-11.4213
▁player	-11.4215
▁exactly	-11.4215
▁faced	-11.4218
lip	-11.4219
▁helping	-11.4221
▁रचनाओं	-11.4222
eration	-11.4229
▁resulting	-11.4233
▁papers	-11.4235
▁उपेक्षा	-11.4236
▁प्रोटीन	-11.4236
▁सर्वथा	-11.4237
▁दिशानिर्देश	-11.4237
▁te	-11.4237
iz	-11.4238
rt	-11.424
▁बचपन	-11.424
▁cup	-11.4241
ावली	-11.4241
ठीक	-11.4241
56	-11.4242
SH	-11.4243
▁realised	-11.4248
▁जिन्ना	-11.425
garh	-11.4251
▁congratulate	-11.4253
▁खोजने	-11.4257
▁finger	-11.4258
▁Manipur	-11.4262
▁कहानियों	-11.4262
▁Mount	-11.4262
▁1960	-11.4263
हान	-11.4263
वादियों	-11.4263
▁HTTP	-11.4266
नुमा	-11.4266
य्या	-11.4267
पैग़म्बर	-11.4269
▁corresponding	-11.427
▁females	-11.4271
▁नूर	-11.4272
▁बताए	-11.4272
▁constantly	-11.4273
▁eating	-11.4274
▁Gora	-11.4275
▁बॉक्स	-11.4275
▁लेट	-11.4276
hak	-11.4276
▁ended	-11.4279
▁सौदा	-11.4279
▁प्रिंटर	-11.4283
▁प्ले	-11.4285
▁बसव	-11.4287
▁GNU	-11.4288
▁निमित्त	-11.4288
▁modify	-11.4288
▁सर्वश्रेष्ठ	-11.4288
▁औज़ार	-11.4288
▁किनारा	-11.4288
▁ठहराते	-11.4294
▁मिश्रित	-11.4295
▁exception	-11.4295
▁dress	-11.43
▁musical	-11.4301
▁परियोजनाएं	-11.4304
▁mat	-11.4305
▁तम	-11.4306
▁कहें	-11.4308
▁Palestinian	-11.4311
वाय	-11.4312
ima	-11.4312
▁Gazette	-11.4314
▁studied	-11.4314
▁worst	-11.4314
▁निवेदन	-11.4314
▁वैष्णव	-11.4314
▁सिफ़ारिश	-11.4314
उल	-11.4315
▁पूर्वोत्तर	-11.4316
▁Interest	-11.4316
▁1930	-11.4316
▁वाक्य	-11.4317
▁मानों	-11.4321
terior	-11.4323
▁नोड	-11.4324
▁बिट	-11.4328
षित	-11.4329
num	-11.4329
▁ख़ान	-11.433
▁dwelling	-11.4333
▁gate	-11.4334
▁गे	-11.4334
ok	-11.4337
▁ग्र	-11.4338
▁endeavour	-11.4338
रोग	-11.4338
▁declaration	-11.434
▁grief	-11.434
▁इलाहाबाद	-11.434
▁टैगोर	-11.4341
▁raising	-11.4341
▁प्रयोगशाला	-11.4341
being	-11.4343
▁aimed	-11.4343
कस	-11.4349
usa	-11.435
बाप	-11.4354
लम	-11.4354
▁नाग	-11.4355
So	-11.4356
▁अपवाद	-11.4356
▁अंतरित	-11.4358
▁चै	-11.4359
▁सेल	-11.4363
ॆ	-11.4366
▁unaware	-11.4367
▁अधिवेशन	-11.4367
▁संकाय	-11.4368
▁अध्य	-11.4369
्टन	-11.437
mir	-11.437
▁विशेषाधिकार	-11.437
▁Ban	-11.4373
▁ज्यादातर	-11.4373
▁France	-11.4373
▁cancer	-11.4374
ches	-11.4376
▁Bio	-11.4377
▁दीं	-11.4381
▁seat	-11.4382
▁Devi	-11.4393
▁appellant	-11.4393
▁divorce	-11.4393
▁ऊंची	-11.4393
▁पंचायत	-11.4393
▁Money	-11.4394
▁slaves	-11.4394
▁PRAN	-11.4394
बंदी	-11.4394
cies	-11.4398
ऊँ	-11.4398
▁कॉपी	-11.4399
37	-11.4401
▁एकत्रित	-11.4401
ीज़	-11.4405
▁असं	-11.4406
▁नोडल	-11.4406
▁surrender	-11.4406
▁120	-11.4407
▁Ser	-11.4408
▁tourist	-11.4409
▁Iraq	-11.4413
▁knoweth	-11.4414
▁normally	-11.4415
▁chose	-11.4417
ीला	-11.4417
किताब	-11.4417
कारों	-11.4418
▁prince	-11.4418
▁नकदी	-11.4419
▁lac	-11.4419
▁retain	-11.4419
▁निराश	-11.4419
▁ऊंचे	-11.442
▁Template	-11.442
▁गूगल	-11.442
▁गरीबों	-11.442
▁किशोर	-11.442
वो	-11.4421
▁जंगली	-11.4422
▁छोर	-11.4423
▁आँखें	-11.4423
▁Oft	-11.4424
▁लौटने	-11.4425
▁पढ़ाई	-11.4429
▁epic	-11.4429
▁उपग्रह	-11.443
ीं	-11.443
▁2013)	-11.4433
▁पश्च	-11.4436
▁mix	-11.4436
▁सूर	-11.4441
▁ब्ल	-11.4442
▁ऊंचा	-11.4444
▁pictures	-11.4445
responsibilities	-11.4446
▁अन्जाम	-11.4446
▁historic	-11.4446
▁commencement	-11.4447
▁नाहक़	-11.4447
▁authentication	-11.4447
▁hero	-11.4448
▁शत	-11.4448
▁bitter	-11.4449
▁विधिक	-11.4449
▁surrounding	-11.4451
▁chat	-11.4453
▁निरा	-11.4453
▁गले	-11.4455
▁आजाद	-11.4456
ॉँ	-11.4456
▁CRA	-11.4456
cation	-11.4458
▁सौंपा	-11.4461
बाल	-11.4463
lap	-11.4464
▁चित्रण	-11.4465
▁companion	-11.4472
▁संतोष	-11.4473
▁Faith	-11.4473
▁investigation	-11.4473
▁livelihood	-11.4473
▁opposite	-11.4473
▁qualities	-11.4473
▁Japanese	-11.4473
▁despite	-11.4473
▁interval	-11.4474
▁सवाब	-11.4478
▁bears	-11.4482
agon	-11.4484
▁रोज़े	-11.4485
▁फूलों	-11.4485
ड्र	-11.4486
▁बढ़ता	-11.4487
▁whi	-11.4489
his	-11.4491
mail	-11.4493
्‍या	-11.4493
▁wished	-11.4493
▁विनियमन	-11.4493
▁दमन	-11.4494
ched	-11.4495
END	-11.4499
▁स्नातक	-11.45
▁disaster	-11.45
▁मराठी	-11.45
▁मुकाबले	-11.45
▁रासायनिक	-11.45
▁श्रद्धांजलि	-11.45
▁aircraft	-11.45
▁करतूत	-11.45
▁ruling	-11.45
▁reduction	-11.4501
▁sensitive	-11.4502
▁निपटने	-11.4502
▁SSL	-11.4503
▁engagement	-11.4506
iva	-11.451
▁चख	-11.4511
स्स	-11.4512
rus	-11.4513
▁टै	-11.4516
▁emerge	-11.4517
▁obvious	-11.4519
▁regularly	-11.4521
gni	-11.4522
▁IS	-11.4525
▁Wi	-11.4526
▁extract	-11.4526
मुशरेकीन	-11.4527
▁Greek	-11.4527
▁sequence	-11.4527
▁sinners	-11.4527
▁1952	-11.4527
▁क्रांतिकारी	-11.4528
▁सांस	-11.4528
▁कर्मों	-11.4529
चंद्र	-11.4531
▁arranged	-11.4531
▁pra	-11.4533
▁Jam	-11.4534
EL	-11.4535
ola	-11.4536
▁emotional	-11.4537
▁राव	-11.4537
▁बेटी	-11.4537
▁साकार	-11.4538
▁सबका	-11.4539
▁repeat	-11.454
चरित	-11.4541
▁flowing	-11.4541
▁prompt	-11.4542
▁wages	-11.4542
▁सीट	-11.4544
▁examine	-11.4545
▁92	-11.4546
▁gap	-11.4546
▁feeding	-11.4549
कल्प	-11.4551
▁मिलन	-11.4551
फ़्	-11.4551
▁slave	-11.4552
क्रिया	-11.4552
▁healthcare	-11.4553
▁illegal	-11.4553
▁वसीयत	-11.4553
▁dividend	-11.4554
▁सम्बद्ध	-11.4555
▁keen	-11.4555
sar	-11.4556
▁प्रदर्शक	-11.4557
▁peak	-11.4558
▁एहकाम	-11.4559
▁opposed	-11.4559
▁रणनीति	-11.456
न्ना	-11.4561
▁पार्श्व	-11.4561
hand	-11.4564
▁remind	-11.4567
▁गौर	-11.4571
▁हमले	-11.4572
▁यात्री	-11.4573
▁participants	-11.4573
med	-11.4574
वती	-11.4577
tory	-11.4577
पुरुष	-11.4577
its	-11.4578
▁definition	-11.458
▁खुल्लम	-11.458
▁परिकल्पना	-11.458
▁स्त्रियाँ	-11.458
▁movie	-11.458
▁आधे	-11.458
▁घायल	-11.4581
▁घमंड	-11.4581
▁cards	-11.4587
▁Mahabharata	-11.4589
▁tribes	-11.4589
▁creates	-11.4589
▁fearing	-11.4591
asa	-11.4592
▁lessons	-11.4592
Ad	-11.4593
him	-11.4597
▁generate	-11.4598
▁मोर	-11.4598
▁बीबी	-11.4603
▁दंत	-11.4604
▁arguments	-11.4606
""	-11.4606
▁Britain	-11.4607
▁Investment	-11.4607
▁अहिंसा	-11.4607
▁Ltd	-11.4608
▁सहानुभूति	-11.4608
▁alike	-11.4609
▁स्वाधीनता	-11.4609
low	-11.4612
▁वर्गीकरण	-11.4614
ैत	-11.4618
▁जाएँगें	-11.4623
▁सरदारों	-11.4626
▁चूक	-11.4629
fr	-11.4629
▁keys	-11.463
When	-11.4632
▁consequences	-11.4632
▁निराशा	-11.4633
71	-11.4633
▁technique	-11.4634
▁instruction	-11.4634
▁execution	-11.4635
▁उन्नयन	-11.4635
▁धारक	-11.4637
रल	-11.4637
गोया	-11.4639
▁drowned	-11.4639
रिस	-11.4639
▁secondary	-11.4642
cer	-11.4642
▁peaceful	-11.4643
ांश	-11.4644
▁woe	-11.4645
gy	-11.4646
AP	-11.4648
flow	-11.4649
▁आलेख	-11.4649
UT	-11.4649
▁represented	-11.4651
nk	-11.4654
▁largely	-11.4655
rig	-11.4658
दिल	-11.4661
▁Pension	-11.4662
▁salary	-11.4662
▁parliamentary	-11.4662
▁फु	-11.4663
▁फीस	-11.4663
▁hast	-11.4664
▁Governance	-11.4664
वर्धन	-11.4669
▁Media	-11.4669
▁”“	-11.467
▁Direct	-11.4671
▁टीका	-11.4673
▁enterprises	-11.4673
▁Sta	-11.4674
▁मिटाना	-11.4675
▁operational	-11.4678
16.	-11.4679
▁Trans	-11.468
this	-11.4682
▁२०	-11.4683
▁reaching	-11.4686
सामग्री	-11.4686
रसूल	-11.4687
▁Gita	-11.4687
▁हममें	-11.4687
▁concerns	-11.4689
▁Black	-11.4689
▁Natural	-11.4689
▁summer	-11.469
▁broke	-11.4693
▁engine	-11.4694
▁Run	-11.4694
yo	-11.4695
▁गिन	-11.4696
▁worthy	-11.4697
▁कराए	-11.47
▁पहन	-11.4701
▁painting	-11.4701
▁हंस	-11.4703
ड़ियों	-11.4704
▁pull	-11.4704
▁shell	-11.4706
▁रेड	-11.4708
▁pairs	-11.4708
▁closer	-11.4708
▁hosts	-11.4712
▁Defence	-11.4716
▁Throne	-11.4716
▁cultivation	-11.4716
▁बंदरगाह	-11.4716
▁excuse	-11.4716
▁Hearing	-11.4717
▁वक्तव्य	-11.4718
▁Protection	-11.472
ग्रे	-11.4721
▁चाँद	-11.4722
▁blow	-11.4724
▁carefully	-11.4724
char	-11.4727
▁laugh	-11.4729
▁मैच	-11.473
▁decreed	-11.4731
चन्द्र	-11.4733
रित	-11.4734
62	-11.4735
▁कैश	-11.4736
▁ultimate	-11.4737
विन	-11.4737
▁ते	-11.4738
yard	-11.4739
▁वादी	-11.4739
▁आँख	-11.4741
▁Document	-11.4743
▁हुकूमत	-11.4744
▁विलय	-11.4744
▁हस्तांतरण	-11.4744
▁संवैधानिक	-11.4744
▁Je	-11.4744
▁conferred	-11.4744
▁वृत्त	-11.4745
▁66	-11.4746
▁बरसाया	-11.4746
ope	-11.4747
SP	-11.4747
ंश	-11.4747
▁Brahman	-11.4748
His	-11.4749
▁सभापति	-11.475
▁जग	-11.475
कना	-11.4751
▁दिखाते	-11.4757
▁पहुंचाने	-11.4758
▁इंजन	-11.4758
▁consisting	-11.4761
▁गि	-11.4762
▁Five	-11.4763
ाट	-11.4765
▁निष्	-11.4766
▁shift	-11.4767
▁experiences	-11.4769
▁Empire	-11.4771
▁वर्षगांठ	-11.4771
▁खजूर	-11.4771
▁techniques	-11.4771
▁बैकअप	-11.4771
▁मज़े	-11.4772
▁companions	-11.4772
VI	-11.4778
▁स्क्रिप्ट	-11.478
▁फलक	-11.478
▁पकड़े	-11.4783
52	-11.4786
▁फलों	-11.4791
▁2017)	-11.4792
▁essentially	-11.4793
▁ban	-11.4796
पश्चिम	-11.4796
▁आपदा	-11.4798
▁अग	-11.4798
▁Majesty	-11.4799
▁Properties	-11.4799
▁Durga	-11.4799
▁MAPI	-11.4799
▁इबरत	-11.4799
▁औजार	-11.4799
▁अवशेष	-11.4799
▁बढ़ाना	-11.4799
▁संवेदना	-11.4799
▁Major	-11.48
▁shrine	-11.48
▁फर	-11.4801
▁hotel	-11.4801
▁forced	-11.4802
▁वर्क	-11.4803
▁ju	-11.4803
▁पैरा	-11.4804
▁Hu	-11.4807
▁सहन	-11.4808
▁emerged	-11.4808
▁फॉर्म	-11.4811
▁arrest	-11.4813
▁stretch	-11.4813
▁सोचते	-11.4814
▁pertain	-11.4814
▁245	-11.4817
ena	-11.4818
▁dealt	-11.4821
▁Agra	-11.4825
▁NABARD	-11.4826
▁Yusuf	-11.4826
▁earliest	-11.4826
▁fragment	-11.4826
▁स्तम्भ	-11.4826
▁contrary	-11.4827
▁1985	-11.4827
नक	-11.4831
▁serving	-11.4831
बात	-11.4832
▁समझो	-11.4833
▁6,	-11.4833
▁बैक	-11.4834
▁Hall	-11.4837
TER	-11.4838
▁अंड	-11.4843
▁seal	-11.4847
vara	-11.4849
EE	-11.4851
▁झोंक	-11.4851
▁द्रव	-11.4853
▁wheel	-11.4854
▁गणतंत्र	-11.4854
▁सचिवालय	-11.4855
▁1951	-11.4855
▁winter	-11.4856
▁requirement	-11.4858
▁Forward	-11.4859
▁seats	-11.486
▁इंटर	-11.4862
▁प्रवाहित	-11.4863
ानुसार	-11.4863
▁generated	-11.4864
endra	-11.4864
शो	-11.4864
▁shop	-11.4865
▁Bhag	-11.4865
place	-11.4866
▁छोड़ने	-11.4867
lex	-11.4867
आज	-11.4869
India	-11.4871
▁रोज़ा	-11.4871
▁राजाओं	-11.4872
▁acquire	-11.4872
▁औषधि	-11.4875
▁Welfare	-11.4882
▁circular	-11.4882
▁integrity	-11.4882
▁आमदनी	-11.4882
▁ऊँची	-11.4882
▁रियायत	-11.4882
▁अजीब	-11.4882
▁Organisation	-11.4882
▁भत्ता	-11.4882
ific	-11.4883
▁deals	-11.4883
बान	-11.4884
▁liable	-11.4885
▁calculated	-11.4885
▁निभाई	-11.4887
▁ब्राउज़र	-11.4887
▁मोटे	-11.4887
बद	-11.4888
▁tend	-11.4893
▁ढूंढ	-11.4893
ook	-11.4895
▁reserve	-11.4903
▁persist	-11.4905
▁ख़ा	-11.4905
ank	-11.4905
▁Gram	-11.4906
▁Minimum	-11.491
▁इताअत	-11.491
▁mischief	-11.491
▁Labour	-11.491
▁समूच	-11.491
▁1994	-11.491
▁सशस्त्र	-11.491
याक़ूब	-11.491
▁गुनाहगार	-11.4911
▁कारगर	-11.4911
▁52	-11.4911
▁midst	-11.4911
▁consequence	-11.4912
▁critic	-11.4913
▁सरीह	-11.4914
वट	-11.4914
▁gland	-11.4915
▁पढ	-11.4915
▁imposed	-11.4916
pen	-11.4919
vation	-11.4927
▁VI	-11.4935
▁लड़ने	-11.4936
▁'{0}'	-11.4938
▁महानिदेशक	-11.4938
▁Airport	-11.4938
▁modified	-11.4939
▁अवतार	-11.4939
lessness	-11.4941
nan	-11.4941
▁खरीदने	-11.4941
space	-11.4941
▁oriented	-11.4943
▁गोली	-11.4943
▁बारी	-11.4945
ATE	-11.4945
▁invent	-11.4945
▁proposals	-11.4946
▁टिक	-11.4947
▁बढ़ाया	-11.4948
▁ख़ैर	-11.495
▁अज्र	-11.495
▁नियोजन	-11.4953
▁mono	-11.4953
▁assume	-11.4956
▁वृद्ध	-11.4958
resident	-11.4959
योग्य	-11.496
▁किला	-11.4961
▁सुनो	-11.4962
▁learnt	-11.4962
▁श्र	-11.4962
विशेष	-11.4965
▁causing	-11.4966
▁ritual	-11.4968
▁fever	-11.497
▁पक	-11.4973
SA	-11.4976
▁मंजिल	-11.4976
शे	-11.4978
ियॉ	-11.4979
्ति	-11.498
▁settle	-11.4982
▁bills	-11.4983
ेन्ट	-11.4988
▁wings	-11.4989
try	-11.4989
शाली	-11.499
सेवा	-11.499
cut	-11.4992
▁dignity	-11.4994
▁empire	-11.4994
▁वयस्क	-11.4994
▁entity	-11.4994
▁दीर्घकालिक	-11.4994
▁माहौल	-11.4994
▁अनुभूति	-11.4994
fu	-11.4995
▁lady	-11.4995
▁बोलने	-11.4997
py	-11.4997
▁sheep	-11.4998
▁तस्	-11.4999
▁rightly	-11.5002
▁recommended	-11.5004
लाई	-11.5004
dhan	-11.5006
▁consist	-11.5006
▁सर्वज्ञ	-11.5011
▁succeeded	-11.5012
▁मजदूरी	-11.5012
़ी	-11.5012
▁restore	-11.5013
▁arise	-11.5014
▁TV	-11.5016
▁careful	-11.5019
▁अवगत	-11.502
▁aggregate	-11.5022
▁wheat	-11.5022
▁widow	-11.5022
▁आकर्षक	-11.5022
▁चक्कर	-11.5022
▁धारित	-11.5022
99	-11.5022
▁1973	-11.5023
▁भड़कती	-11.5023
▁समायोजन	-11.5023
▁तत्कालीन	-11.5023
▁असंभव	-11.5023
▁teeth	-11.5023
▁अनुभाग	-11.5023
▁pace	-11.5026
nate	-11.5026
▁मोटा	-11.5027
▁Never	-11.503
सिन	-11.503
▁Thy	-11.5031
▁सूजन	-11.5032
▁पढ़ी	-11.5034
▁san	-11.5038
▁हाई	-11.5039
▁छु	-11.504
▁तुझ	-11.5041
rang	-11.5041
▁maintaining	-11.5043
▁ruler	-11.505
▁introduction	-11.505
▁नींव	-11.505
▁बरबाद	-11.505
▁protest	-11.505
▁coordinate	-11.5051
▁पूर्णतया	-11.5052
▁मंत्र	-11.5052
▁percentage	-11.5053
▁attacks	-11.5054
▁मनाया	-11.5058
▁बेचने	-11.5061
▁आज्ञाकारी	-11.5063
▁इष्ट	-11.5069
mitted	-11.5072
riya	-11.5072
▁Multi	-11.5076
Then	-11.5077
आर्थिक	-11.5077
▁mortal	-11.5077
▁आगमन	-11.5078
▁Chennai	-11.5078
▁Professor	-11.5078
▁abnormal	-11.5078
▁grievous	-11.5078
▁पाँव	-11.5078
▁guess	-11.5079
▁gross	-11.5079
▁gathering	-11.508
▁जरा	-11.5081
▁जीवंत	-11.5082
▁बांट	-11.5083
▁AC	-11.5083
▁क्लब	-11.5084
▁Ste	-11.5085
▁Main	-11.5085
▁questioned	-11.5086
▁Institutions	-11.5086
▁परहेज़गारी	-11.5087
परक	-11.5088
▁चरम	-11.5088
▁harvest	-11.5089
▁माइ	-11.509
▁बदलना	-11.5091
▁ray	-11.5092
▁बड़	-11.5094
सिल	-11.5095
▁फ्रेम	-11.5097
▁चौक	-11.5098
▁decline	-11.5098
▁शीत	-11.51
▁बनाती	-11.5102
▁Sho	-11.5103
▁favours	-11.5103
युक़्त	-11.5104
▁रहकर	-11.5104
▁अप्रत्याशित	-11.5107
▁आज़माइश	-11.5107
▁माउस	-11.5107
▁इंजीनियरिंग	-11.5108
▁dramatic	-11.5109
▁नियंत्रक	-11.5112
ट्टा	-11.5112
गू	-11.5112
▁ideals	-11.5115
▁hire	-11.5116
भाई	-11.5119
▁ग्ल	-11.5119
▁symptoms	-11.512
▁rendered	-11.512
▁स्टॉक	-11.5123
इसी	-11.5125
)."	-11.5126
rk	-11.513
ूद	-11.5131
▁शास्त्री	-11.5131
▁194	-11.5133
आउट	-11.5134
▁impart	-11.5135
▁protein	-11.5135
▁license	-11.5135
▁मनोरंजन	-11.5135
पथ	-11.5136
▁caught	-11.5136
▁निर्माता	-11.5138
उनसे	-11.5139
▁newspaper	-11.5139
bed	-11.5139
▁supposed	-11.514
▁illness	-11.5141
▁रंज	-11.5142
▁translated	-11.5142
गीर	-11.5142
▁tract	-11.5142
▁सूचक	-11.5144
▁finished	-11.5145
वर्ष	-11.5147
▁sincere	-11.5148
▁envi	-11.5153
▁radi	-11.5156
▁describe	-11.5159
▁डालना	-11.5159
key	-11.5162
▁converted	-11.5162
including	-11.5163
▁fifth	-11.5164
▁लड़कियों	-11.5164
▁टुकड़ा	-11.5164
▁strengthened	-11.5165
▁संग्राम	-11.5166
▁रेशम	-11.5166
▁लाई	-11.5168
▁उपहार	-11.5168
art	-11.5171
▁अहमद	-11.5174
▁74	-11.5176
72	-11.5182
दम	-11.5184
▁Punjabi	-11.5185
inal	-11.5187
▁रोड	-11.5189
▁Thamud	-11.5193
▁derivative	-11.5193
▁Sometimes	-11.5193
▁variable	-11.5193
▁Previous	-11.5193
▁यौन	-11.5193
▁chair	-11.5193
▁carved	-11.5193
▁दुर्	-11.5194
▁EVE	-11.5194
▁Ve	-11.5197
▁जाहिर	-11.5197
▁Top	-11.5197
▁Soon	-11.5198
▁op	-11.5198
▁clubs	-11.5199
चन्द	-11.5201
▁Allow	-11.5202
▁स्वीकार्य	-11.5203
▁छोड़ें	-11.5203
pad	-11.5203
▁रत्न	-11.5204
▁अपराधियों	-11.5204
tus	-11.5204
▁rush	-11.5204
▁ज़िम्मेदारी	-11.5206
▁</	-11.5207
▁Format	-11.5208
▁poly	-11.5209
▁सेनाओं	-11.5209
▁आव	-11.5211
AND	-11.5211
लक	-11.5211
▁Officers	-11.5212
▁जगा	-11.5212
As	-11.5215
▁collective	-11.5215
▁consumers	-11.5217
▁जॉन	-11.5218
ॉक	-11.522
▁Municipal	-11.5221
▁aforesaid	-11.5221
▁bacteria	-11.5221
▁circuit	-11.5221
▁${	-11.5221
▁उपभोग	-11.5223
▁ज्यादती	-11.5224
▁treasure	-11.5226
▁अपूर्ण	-11.5227
zi	-11.523
▁Solar	-11.523
▁Mahal	-11.5231
▁फ़ा	-11.5232
▁naturally	-11.5233
pher	-11.5234
▁मजदूर	-11.5234
ening	-11.5235
sum	-11.5235
CS	-11.5236
dom	-11.5237
▁witnessed	-11.5237
▁Ri	-11.5239
▁नाश	-11.524
▁गोवा	-11.5245
NC	-11.5245
▁झाड़	-11.5247
▁render	-11.5248
▁Projects	-11.5249
▁Marathi	-11.525
▁नुक़सान	-11.525
▁एकजुट	-11.525
▁शोषण	-11.525
▁क़ब्ल	-11.525
▁Common	-11.525
▁stuff	-11.5251
▁farming	-11.5251
▁pilgrimage	-11.5252
▁अवयव	-11.5252
▁chest	-11.5254
मिया	-11.5254
▁lakhs	-11.5255
▁शास्त्रीय	-11.5255
▁Should	-11.5255
acy	-11.5259
▁मंजूर	-11.526
▁hi	-11.5265
नल	-11.5267
▁quit	-11.5271
▁खुर	-11.5271
केंद्र	-11.5272
क़्त	-11.5272
▁तालिका	-11.5275
▁tenant	-11.5276
▁Computer	-11.5279
▁deceased	-11.5279
▁entrance	-11.5279
▁मुद्रित	-11.5279
▁consent	-11.5279
▁पेट्रोलियम	-11.5279
▁स्थूल	-11.5279
▁Space	-11.5279
▁जनजाति	-11.5279
▁scholar	-11.5281
▁प्रतिवर्ष	-11.5282
▁feelings	-11.5283
▁आचार्य	-11.5286
▁Railways	-11.5286
lal	-11.5288
▁ग्रन्थ	-11.5288
ians	-11.5288
▁hole	-11.5289
▁dec	-11.529
▁Courts	-11.5292
ांकन	-11.5296
▁फ्र	-11.5298
▁मारने	-11.5299
▁पुराण	-11.5299
▁समता	-11.5299
▁stations	-11.5302
▁हरी	-11.5303
▁experiment	-11.5306
▁पद्म	-11.5306
▁patients	-11.5306
▁superior	-11.5306
ographic	-11.5307
ख्तियार	-11.5308
▁विनिधान	-11.5308
▁सत्याग्रह	-11.5308
▁proviso	-11.5308
▁intense	-11.5308
▁वास्तुकला	-11.5308
▁चेहरा	-11.5308
¤¬	-11.5308
▁1984	-11.5309
ement	-11.5309
▁Personal	-11.5309
▁influenced	-11.531
▁estate	-11.531
▁fulfill	-11.5311
▁अंगों	-11.5312
लिया	-11.5312
self	-11.5313
▁Resource	-11.5314
ule	-11.5318
IG	-11.5319
▁Give	-11.532
▁लय	-11.5321
▁customs	-11.5322
▁span	-11.5323
▁discovered	-11.5324
▁forwarded	-11.5325
▁thin	-11.5326
▁भव्य	-11.5326
nar	-11.5326
▁tooth	-11.533
▁कमर	-11.533
▁नामों	-11.5331
hav	-11.5331
star	-11.5331
▁Anti	-11.5332
▁performing	-11.5335
▁brave	-11.5337
▁शरारत	-11.5337
▁Download	-11.5337
▁टॉगल	-11.5337
▁Leave	-11.5338
▁सम्बंध	-11.5338
▁installation	-11.534
▁सुलेमान	-11.534
▁Transfer	-11.5341
▁combined	-11.5343
▁nose	-11.5343
▁assuredly	-11.5344
▁स्वाद	-11.5345
There	-11.5347
▁permanently	-11.535
▁शाही	-11.5354
▁ग्रे	-11.5354
▁Holy	-11.5357
▁wing	-11.5364
▁totally	-11.5365
▁bonds	-11.5365
lock	-11.5366
▁Real	-11.5366
▁सुचरिता	-11.5366
▁ice	-11.5366
▁बेहद	-11.5367
▁संरक्षित	-11.5367
vad	-11.537
▁Lu	-11.5371
PI	-11.5377
ट्री	-11.5377
▁बैल	-11.5378
RC	-11.538
▁protected	-11.5382
▁Dec	-11.5383
▁adding	-11.5385
script	-11.5388
ूम	-11.5388
▁ब्रा	-11.539
भव	-11.5391
▁झुका	-11.5395
▁कॉन्फ़िगर	-11.5395
▁हल्का	-11.5395
▁inhabitants	-11.5396
▁युवक	-11.5396
▁सुदूर	-11.5397
▁सन्देश	-11.5398
▁affection	-11.5399
ele	-11.5399
शीलता	-11.54
▁स्थलों	-11.54
▁हालात	-11.54
SL	-11.54
१९	-11.5402
▁belied	-11.5403
▁सालों	-11.5404
▁rapidly	-11.5404
▁walking	-11.5408
▁inserted	-11.5408
▁125	-11.541
गुल	-11.5411
▁रद्दी	-11.5411
पहले	-11.5412
get	-11.5414
▁तरीक़	-11.5414
चाहे	-11.5415
▁निकलते	-11.5416
water	-11.5417
▁(15	-11.5419
▁महान्	-11.542
▁entrepreneurs	-11.5422
तरह	-11.5423
▁Telugu	-11.5425
▁continent	-11.5425
▁आश्वासन	-11.5425
▁झुठलाओगे	-11.5425
▁प्रकोप	-11.5425
▁सार्थक	-11.5425
▁Bhutan	-11.5425
▁महामारी	-11.5425
▁दूरसंचार	-11.5425
▁नवीनतम	-11.5426
▁संव्यवहार	-11.5426
▁कतरा	-11.5427
▁जाननेवाला	-11.5428
▁grade	-11.5429
▁बंधन	-11.5429
▁Super	-11.543
▁बुक	-11.543
▁commonly	-11.5431
▁घु	-11.5433
जित	-11.5433
ाक़	-11.5433
▁बनाएं	-11.5434
▁telling	-11.5435
▁समझी	-11.5435
सान	-11.5436
▁perish	-11.5436
▁ascribe	-11.5436
▁gained	-11.5438
कोड	-11.5451
आइ	-11.5452
▁printing	-11.5452
bus	-11.5452
▁स्वर्ग	-11.5454
▁Administration	-11.5454
▁vimana	-11.5454
▁आनुवंशिक	-11.5454
▁residence	-11.5454
▁Private	-11.5455
▁Fe	-11.5455
▁Phone	-11.5456
▁clothes	-11.5459
▁worker	-11.5459
▁नेताजी	-11.5459
बाजी	-11.5461
▁Hinduism	-11.5461
▁८	-11.5463
▁कोमल	-11.5467
▁proofs	-11.5467
▁slip	-11.5468
▁channels	-11.5471
▁ढील	-11.5473
don	-11.5475
न्ह	-11.5476
▁produces	-11.5477
हें	-11.5479
bai	-11.5481
▁विपक्ष	-11.5481
▁डालर	-11.5482
▁retribution	-11.5484
▁एख्तेयार	-11.5484
▁त्योहार	-11.5484
▁Agreement	-11.5484
▁नाशुक्र	-11.5484
▁ठाकुर	-11.5484
▁Switch	-11.5484
▁smoke	-11.5484
▁Quality	-11.5484
▁resistance	-11.5484
▁प्रभुत्व	-11.5484
▁1975	-11.5485
▁नतीजा	-11.5486
ियाई	-11.5487
▁समीकरण	-11.5488
▁जोड़ी	-11.5488
▁genetic	-11.549
▁पेय	-11.5491
▁USA	-11.5492
▁Plant	-11.5492
▁गुम	-11.5493
▁graduate	-11.5494
▁arrested	-11.5498
स्थिति	-11.5499
atter	-11.5502
▁जोड़ना	-11.5506
▁commands	-11.5507
▁Star	-11.5508
▁coast	-11.5509
▁Rate	-11.5511
्थ	-11.5512
▁equation	-11.5513
▁Having	-11.5513
▁सिंहासन	-11.5513
▁Convention	-11.5513
▁radical	-11.5514
▁जज़ा	-11.5517
▁Stop	-11.5519
▁संकेतक	-11.5521
▁हू	-11.5521
▁बहका	-11.5523
▁शस्त्र	-11.5524
▁बाएं	-11.5525
▁engage	-11.5527
ache	-11.5527
ida	-11.5531
▁paying	-11.5533
▁देनी	-11.5535
▁वीं	-11.5536
लै	-11.5537
▁हक	-11.5539
▁privilege	-11.554
▁करूँगा	-11.5541
▁50%	-11.5542
▁\	-11.5542
▁paintings	-11.5543
▁Creator	-11.5543
▁possibility	-11.5543
▁इच्छुक	-11.5543
▁कार्यपालिका	-11.5543
▁क्षैतिज	-11.5543
▁धमकी	-11.5543
▁श्रीलंका	-11.5543
▁फिल्टर	-11.5543
▁Turkey	-11.5543
▁१२	-11.5543
▁Pu	-11.5543
cho	-11.5544
▁भेदभाव	-11.5544
▁childhood	-11.5545
duct	-11.5545
matic	-11.5547
-8	-11.5547
▁sail	-11.5547
▁ph	-11.5549
▁Loan	-11.555
ाहट	-11.5551
▁Behold	-11.5551
रानी	-11.5552
▁दरख्त	-11.5553
ुस	-11.5554
▁किलो	-11.5555
▁BY	-11.5556
▁Woe	-11.5556
▁आवश्य	-11.5557
▁दिखला	-11.5561
▁seated	-11.5563
▁चित्रित	-11.5566
▁वाक़िफ़	-11.5566
ट्ठ	-11.5567
57	-11.5568
▁procedures	-11.557
▁परिणामों	-11.5571
▁क्व	-11.5571
▁parallel	-11.5573
▁उपर्युक्त	-11.5573
▁कच्चे	-11.5573
▁Indira	-11.5573
▁टेनिस	-11.5573
▁1977	-11.5574
▁revolutionary	-11.5574
▁प्रतिनिधियों	-11.5575
▁tape	-11.5576
▁आंख	-11.5576
▁लायक	-11.5576
अगर	-11.5576
▁Truly	-11.5577
▁नं	-11.5578
▁neighbour	-11.5579
▁monthly	-11.5581
ette	-11.5582
▁जरुरत	-11.5582
▁exalted	-11.5582
▁$1	-11.5583
▁बरकत	-11.5584
logy	-11.5584
▁Allahabad	-11.5588
▁नाटकों	-11.5589
▁UP	-11.559
तुल	-11.559
▁छः	-11.5593
सत	-11.5596
▁सुधारने	-11.5596
▁केन्द्रों	-11.5598
▁पहना	-11.5599
▁बातिल	-11.5599
टल	-11.56
▁इनको	-11.56
▁आयाम	-11.5601
▁Inc	-11.5601
▁furnish	-11.5601
▁possessed	-11.5602
text	-11.5602
▁applicant	-11.5603
▁भूटान	-11.5603
▁hunger	-11.5603
▁dialogue	-11.5603
▁transgressors	-11.5603
▁घोड़े	-11.5603
▁stability	-11.5603
▁पैरों	-11.5604
▁कमीशन	-11.5606
▁सिखाया	-11.5606
▁imported	-11.5606
▁जै	-11.5606
▁defendant	-11.5611
▁भो	-11.5614
▁ख़बरदार	-11.5615
▁Process	-11.5615
▁भाग्य	-11.5615
▁कमल	-11.5615
▁noise	-11.5616
▁समस्याएं	-11.5616
▁रज	-11.5617
PS	-11.5618
▁बढा	-11.5618
▁Vir	-11.562
▁बजाए	-11.5624
ison	-11.5625
▁implementing	-11.5625
▁ranks	-11.5627
▁united	-11.563
▁फ़रमा	-11.5631
CB	-11.5631
▁Survey	-11.5633
▁Yojana	-11.5633
▁arrival	-11.5633
▁varieties	-11.5633
▁डाटाबेस	-11.5633
▁नजदीक	-11.5633
▁तदनुसार	-11.5633
▁यकीन	-11.5633
▁तुम्ही	-11.5633
▁लपेट	-11.5633
▁लाभांश	-11.5634
▁conversion	-11.5634
▁थोप	-11.5636
चना	-11.5642
ying	-11.5643
pol	-11.5643
▁mi	-11.5647
▁hundreds	-11.5648
▁score	-11.5649
44	-11.565
▁awards	-11.565
▁Chi	-11.565
▁Rec	-11.565
▁inspire	-11.5653
▁argue	-11.5653
▁attained	-11.5654
TION	-11.5654
बड़े	-11.5654
स्थापित	-11.5656
▁hence	-11.5657
49	-11.566
bel	-11.566
▁contrast	-11.5663
▁दोपहर	-11.5663
▁भ्रष्टाचार	-11.5663
▁worry	-11.5663
▁poll	-11.5664
▁/%	-11.5664
▁बट	-11.5665
▁passion	-11.5667
ाणु	-11.5668
मीटर	-11.5669
▁ओवर	-11.5671
कान	-11.5678
▁इम	-11.5681
88	-11.5682
रियल	-11.5687
eep	-11.5688
▁disputes	-11.5688
▁remembered	-11.5688
ware	-11.569
bhai	-11.569
▁बेटियाँ	-11.5693
▁carries	-11.5693
▁मुख्यमंत्री	-11.5694
▁दर्शाया	-11.5694
▁पटेल	-11.5695
▁cancel	-11.5696
▁अन्याय	-11.5697
▁habit	-11.5699
▁मुर्द	-11.57
▁rail	-11.5701
see	-11.5702
▁reaches	-11.5708
▁पावर	-11.5714
▁छि	-11.5716
lah	-11.5718
▁चलाए	-11.5718
इश	-11.5723
▁Industries	-11.5723
▁Valley	-11.5723
▁दरवाजे	-11.5723
▁innocent	-11.5723
EM	-11.5723
▁सूअर	-11.5723
▁motor	-11.5725
▁सेवक	-11.5725
बन	-11.5726
▁अपमान	-11.5727
र्ब	-11.5729
▁incident	-11.573
▁अफसोस	-11.573
रोह	-11.573
▁नाव	-11.573
▁Rai	-11.5733
▁characteristic	-11.5734
▁उग	-11.5734
थि	-11.5736
▁Paper	-11.5736
▁वन्य	-11.5738
ाइज	-11.574
पेट	-11.5742
▁appreciate	-11.5744
▁प्रबन्ध	-11.5745
▁ko	-11.5747
▁pack	-11.5749
ंबर	-11.5751
▁फ़िर	-11.5751
°	-11.5751
▁competitive	-11.5751
▁candidates	-11.5752
▁मुताबिक	-11.5752
▁administrator	-11.5753
▁commodities	-11.5753
▁genuine	-11.5753
▁Configure	-11.5753
▁Nothing	-11.5753
▁overseas	-11.5753
▁बतौर	-11.5754
▁mount	-11.5754
▁धूल	-11.5754
color	-11.5755
▁Fir	-11.5756
▁ऋतु	-11.5758
ंदी	-11.576
▁*.	-11.5761
▁आवृत्ति	-11.5761
▁1)	-11.5763
▁दस्त	-11.5763
rah	-11.5763
▁गीतों	-11.5764
▁Game	-11.5765
▁institutional	-11.5767
▁supporting	-11.5767
▁प्रतिबद्ध	-11.5767
▁corrupt	-11.5768
▁token	-11.5769
▁बगल	-11.577
याल	-11.5772
बर्ग	-11.5775
lat	-11.5776
▁involves	-11.5777
मिक	-11.5778
▁सूझ	-11.5778
ाओ	-11.5781
▁honor	-11.5781
EP	-11.5783
▁legislative	-11.5784
▁ऑपरेशन	-11.5784
▁हरियाणा	-11.5784
▁गर्भाशय	-11.5784
▁सटीक	-11.5784
▁आँकड़ा	-11.5784
▁तख्त	-11.5784
▁मैत्रीपूर्ण	-11.5785
▁सुनवाई	-11.5785
▁somebody	-11.5786
कड़	-11.5786
▁stronger	-11.5787
qua	-11.5788
84	-11.5789
▁thrown	-11.579
▁Dar	-11.5791
▁रूपांतरण	-11.5791
▁Total	-11.5792
▁जमे	-11.5792
▁putting	-11.5793
ttle	-11.5793
▁Standard	-11.5794
▁factory	-11.5794
▁accordingly	-11.5795
▁पटल	-11.5795
्तु	-11.5796
अल	-11.5799
ND	-11.5799
▁दुर्गा	-11.5804
अन	-11.5804
सिक	-11.5805
हाक़	-11.5806
▁err	-11.5807
▁Selected	-11.5807
▁Australia	-11.581
azi	-11.5813
▁तदबीर	-11.5814
▁intimate	-11.5814
▁स्नेह	-11.5814
▁शिर्क	-11.5815
▁1857	-11.5816
▁सीआरए	-11.5816
▁loves	-11.5817
▁befall	-11.5819
ायन	-11.582
▁मंत्रालयों	-11.582
▁Get	-11.5821
▁बदकार	-11.5825
▁amendment	-11.5826
रेखा	-11.5827
▁अनुभवों	-11.5828
ांकित	-11.5829
▁99	-11.583
कोई	-11.5831
▁फिलीस्तीनी	-11.5831
your	-11.5833
oe	-11.5834
्हा	-11.5835
▁schedule	-11.5835
▁comp	-11.5836
▁withdraw	-11.5837
▁जिन्न	-11.5837
▁apparent	-11.5838
▁झगड़	-11.5839
ेयर	-11.5839
▁खोला	-11.584
tress	-11.5841
▁गुल	-11.5843
ace	-11.5843
▁अंध	-11.5844
▁पारदर्शिता	-11.5845
▁borrower	-11.5845
ाश	-11.5845
▁संक्षेप	-11.5846
ध्य	-11.5846
▁नानक	-11.5846
▁पूजते	-11.5847
शासित	-11.585
▁Engineering	-11.5852
96	-11.5855
▁लोप	-11.5855
▁श्रमिक	-11.5855
म्बा	-11.5856
▁enjoyed	-11.5857
▁मंत्रियों	-11.5859
षा	-11.5859
ॉर्	-11.5865
▁trace	-11.5866
▁दायर	-11.5869
ायत	-11.5872
भाषा	-11.5874
▁अब्दुल	-11.5875
▁अद्वितीय	-11.5875
▁उत्सर्जन	-11.5875
▁Insert	-11.5875
▁Automatic	-11.5876
▁अशोक	-11.5876
▁श्रेय	-11.5876
▁lawyer	-11.5876
▁Tan	-11.5877
▁impression	-11.5877
▁Basava	-11.5877
CD	-11.5877
▁खपत	-11.5877
▁गत	-11.5877
▁कामकाज	-11.5877
▁आन्दोलन	-11.5878
▁एन्	-11.588
▁बुत	-11.5883
-3	-11.5883
/%	-11.5885
▁हरे	-11.5886
▁recover	-11.589
▁आगरा	-11.5893
हक़	-11.5894
▁pursue	-11.5897
▁representing	-11.5899
fall	-11.5902
▁statements	-11.5902
▁header	-11.5903
▁Function	-11.5906
▁stakeholders	-11.5906
▁batsman	-11.5906
▁नमूने	-11.5906
ppellate	-11.5906
▁रसीद	-11.5906
▁कब्जा	-11.5906
▁Device	-11.5907
▁मज	-11.5911
▁सड़कों	-11.5913
▁नीतिगत	-11.5913
▁nearest	-11.5913
आपको	-11.5917
बह	-11.5918
▁recording	-11.592
uli	-11.592
▁चर्च	-11.5922
▁bearer	-11.5922
sen	-11.5924
▁waters	-11.5928
▁मंत्रि	-11.5928
फ्ट	-11.593
▁calm	-11.5931
लीन	-11.5932
any	-11.5935
▁compassion	-11.5937
▁William	-11.5937
▁bur	-11.5937
▁twain	-11.5937
▁चिंतन	-11.5937
▁intervention	-11.5937
▁wilt	-11.5937
▁हारून	-11.5938
▁किताबों	-11.5938
inter	-11.5938
्मी	-11.594
▁exposed	-11.5941
▁confined	-11.5941
▁उपयोगिता	-11.5944
▁आगामी	-11.5944
▁Tar	-11.5944
▁Station	-11.5946
▁bore	-11.5947
▁nearer	-11.5948
▁उत्तराधिकारी	-11.595
एंगे	-11.595
▁53	-11.5952
▁fees	-11.5954
▁ruled	-11.5956
▁पक्षियों	-11.5959
ष्	-11.596
▁elder	-11.5961
▁Bra	-11.5962
[...]
